alignas(8) const unsigned char tflite_model[] = {
  0x20, 0x00, 0x00, 0x00, 0x54, 0x46, 0x4c, 0x33, 0x00, 0x00, 0x00, 0x00,
  0x14, 0x00, 0x20, 0x00, 0x1c, 0x00, 0x18, 0x00, 0x14, 0x00, 0x10, 0x00,
  0x0c, 0x00, 0x00, 0x00, 0x08, 0x00, 0x04, 0x00, 0x14, 0x00, 0x00, 0x00,
  0x1c, 0x00, 0x00, 0x00, 0x88, 0x00, 0x00, 0x00, 0xe0, 0x00, 0x00, 0x00,
  0x74, 0x0b, 0x00, 0x00, 0x84, 0x0b, 0x00, 0x00, 0x98, 0x16, 0x00, 0x00,
  0x03, 0x00, 0x00, 0x00, 0x01, 0x00, 0x00, 0x00, 0x04, 0x00, 0x00, 0x00,
  0x46, 0xf3, 0xff, 0xff, 0x0c, 0x00, 0x00, 0x00, 0x1c, 0x00, 0x00, 0x00,
  0x40, 0x00, 0x00, 0x00, 0x0f, 0x00, 0x00, 0x00, 0x73, 0x65, 0x72, 0x76,
  0x69, 0x6e, 0x67, 0x5f, 0x64, 0x65, 0x66, 0x61, 0x75, 0x6c, 0x74, 0x00,
  0x01, 0x00, 0x00, 0x00, 0x04, 0x00, 0x00, 0x00, 0x94, 0xff, 0xff, 0xff,
  0x0e, 0x00, 0x00, 0x00, 0x04, 0x00, 0x00, 0x00, 0x0d, 0x00, 0x00, 0x00,
  0x71, 0x75, 0x61, 0x6e, 0x74, 0x5f, 0x64, 0x65, 0x6e, 0x73, 0x65, 0x5f,
  0x39, 0x00, 0x00, 0x00, 0x01, 0x00, 0x00, 0x00, 0x04, 0x00, 0x00, 0x00,
  0x12, 0xfd, 0xff, 0xff, 0x04, 0x00, 0x00, 0x00, 0x07, 0x00, 0x00, 0x00,
  0x69, 0x6e, 0x70, 0x75, 0x74, 0x5f, 0x36, 0x00, 0x02, 0x00, 0x00, 0x00,
  0x34, 0x00, 0x00, 0x00, 0x04, 0x00, 0x00, 0x00, 0xdc, 0xff, 0xff, 0xff,
  0x11, 0x00, 0x00, 0x00, 0x04, 0x00, 0x00, 0x00, 0x13, 0x00, 0x00, 0x00,
  0x43, 0x4f, 0x4e, 0x56, 0x45, 0x52, 0x53, 0x49, 0x4f, 0x4e, 0x5f, 0x4d,
  0x45, 0x54, 0x41, 0x44, 0x41, 0x54, 0x41, 0x00, 0x08, 0x00, 0x0c, 0x00,
  0x08, 0x00, 0x04, 0x00, 0x08, 0x00, 0x00, 0x00, 0x10, 0x00, 0x00, 0x00,
  0x04, 0x00, 0x00, 0x00, 0x13, 0x00, 0x00, 0x00, 0x6d, 0x69, 0x6e, 0x5f,
  0x72, 0x75, 0x6e, 0x74, 0x69, 0x6d, 0x65, 0x5f, 0x76, 0x65, 0x72, 0x73,
  0x69, 0x6f, 0x6e, 0x00, 0x12, 0x00, 0x00, 0x00, 0x90, 0x0a, 0x00, 0x00,
  0x88, 0x0a, 0x00, 0x00, 0x78, 0x02, 0x00, 0x00, 0x58, 0x02, 0x00, 0x00,
  0x40, 0x02, 0x00, 0x00, 0x10, 0x02, 0x00, 0x00, 0xfc, 0x01, 0x00, 0x00,
  0xf4, 0x01, 0x00, 0x00, 0xec, 0x01, 0x00, 0x00, 0xe4, 0x01, 0x00, 0x00,
  0xdc, 0x01, 0x00, 0x00, 0xd4, 0x01, 0x00, 0x00, 0xa4, 0x00, 0x00, 0x00,
  0x9c, 0x00, 0x00, 0x00, 0x94, 0x00, 0x00, 0x00, 0x8c, 0x00, 0x00, 0x00,
  0x6c, 0x00, 0x00, 0x00, 0x04, 0x00, 0x00, 0x00, 0xce, 0xfd, 0xff, 0xff,
  0x04, 0x00, 0x00, 0x00, 0x58, 0x00, 0x00, 0x00, 0x0c, 0x00, 0x00, 0x00,
  0x08, 0x00, 0x0e, 0x00, 0x08, 0x00, 0x04, 0x00, 0x08, 0x00, 0x00, 0x00,
  0x10, 0x00, 0x00, 0x00, 0x28, 0x00, 0x00, 0x00, 0x00, 0x00, 0x06, 0x00,
  0x08, 0x00, 0x04, 0x00, 0x06, 0x00, 0x00, 0x00, 0x04, 0x00, 0x00, 0x00,
  0x01, 0x00, 0x00, 0x00, 0xd0, 0x07, 0x00, 0x00, 0x00, 0x00, 0x0a, 0x00,
  0x10, 0x00, 0x0c, 0x00, 0x08, 0x00, 0x04, 0x00, 0x0a, 0x00, 0x00, 0x00,
  0x02, 0x00, 0x00, 0x00, 0x02, 0x00, 0x00, 0x00, 0x04, 0x00, 0x00, 0x00,
  0x06, 0x00, 0x00, 0x00, 0x32, 0x2e, 0x31, 0x31, 0x2e, 0x30, 0x00, 0x00,
  0x32, 0xfe, 0xff, 0xff, 0x04, 0x00, 0x00, 0x00, 0x10, 0x00, 0x00, 0x00,
  0x32, 0x2e, 0x33, 0x2e, 0x30, 0x00, 0x00, 0x00, 0x00, 0x00, 0x00, 0x00,
  0x00, 0x00, 0x00, 0x00, 0x44, 0xeb, 0xff, 0xff, 0x48, 0xeb, 0xff, 0xff,
  0x4c, 0xeb, 0xff, 0xff, 0x5a, 0xfe, 0xff, 0xff, 0x04, 0x00, 0x00, 0x00,
  0x20, 0x01, 0x00, 0x00, 0x29, 0x1a, 0x14, 0x01, 0xe2, 0x25, 0x2d, 0x56,
  0xff, 0xd8, 0xc1, 0xe4, 0x06, 0xae, 0xe9, 0xbd, 0x21, 0xd9, 0xcd, 0xc7,
  0xf7, 0xf3, 0x17, 0xfd, 0xde, 0xec, 0xdd, 0xf8, 0xcf, 0x12, 0xfc, 0xe7,
  0x2e, 0xdc, 0xbd, 0xf8, 0x38, 0x30, 0x02, 0x21, 0x3b, 0xec, 0xe3, 0xd9,
  0x09, 0x5d, 0x45, 0xf5, 0xfa, 0xd2, 0xf8, 0xf9, 0xdd, 0x2e, 0x02, 0x3a,
  0xe1, 0xe5, 0xf4, 0x23, 0xcc, 0xf2, 0xdc, 0xe9, 0x0b, 0xc9, 0xd7, 0xab,
  0xea, 0xcd, 0x0a, 0xe2, 0x35, 0xfe, 0xe5, 0xcc, 0x13, 0x11, 0x1a, 0x27,
  0x55, 0x14, 0xf4, 0x01, 0x2b, 0x7f, 0xef, 0x16, 0x4b, 0x06, 0xee, 0x1e,
  0x49, 0x0e, 0x4e, 0xfa, 0xf7, 0xf1, 0x06, 0xe2, 0xda, 0x0e, 0x15, 0x3d,
  0xe0, 0xf9, 0xea, 0xdb, 0xfc, 0xe2, 0xfe, 0x16, 0xf3, 0xfa, 0xdc, 0xeb,
  0xf1, 0x3c, 0xe9, 0xef, 0x06, 0x03, 0x15, 0xd6, 0x10, 0x09, 0xf1, 0xe8,
  0x0f, 0x1a, 0xdb, 0xf5, 0x3a, 0x11, 0x27, 0x33, 0x3c, 0x0e, 0xbd, 0xc9,
  0x3a, 0x46, 0x55, 0x5d, 0x25, 0x17, 0x1d, 0xd8, 0xde, 0xf5, 0x29, 0x12,
  0xee, 0xf9, 0xaf, 0xb4, 0xd1, 0xcf, 0x00, 0xdd, 0xfd, 0xf9, 0xa4, 0xf3,
  0xd3, 0x14, 0x07, 0xf6, 0x0a, 0xfb, 0xa0, 0xd5, 0xd4, 0xf1, 0xdd, 0x43,
  0x11, 0xf3, 0xd4, 0xe6, 0x52, 0x0f, 0xef, 0x26, 0x32, 0x09, 0xc8, 0xfc,
  0x36, 0x2a, 0x42, 0x4b, 0x06, 0x0d, 0x16, 0xf6, 0xd1, 0x0b, 0x0c, 0x2e,
  0xe4, 0xd9, 0xe7, 0xe9, 0xf0, 0xd4, 0x09, 0xfb, 0x15, 0xd0, 0xb5, 0x1c,
  0xb8, 0xed, 0xed, 0xec, 0xfb, 0x19, 0xba, 0xff, 0x00, 0x17, 0xf8, 0xf5,
  0x27, 0x26, 0xe2, 0x08, 0x31, 0x12, 0x1e, 0x17, 0x36, 0x39, 0xf1, 0x1a,
  0x4a, 0x42, 0x40, 0x31, 0x1f, 0xfa, 0x0d, 0xb4, 0xe0, 0x0c, 0x09, 0xfa,
  0xf1, 0xf2, 0xc8, 0xe5, 0xba, 0xdf, 0x16, 0xf2, 0x07, 0x14, 0xc1, 0xe1,
  0xe5, 0xe0, 0xfd, 0x03, 0xf3, 0x1d, 0xcf, 0xf0, 0xf9, 0x30, 0x01, 0x2f,
  0x3d, 0xf7, 0xda, 0x07, 0xee, 0x16, 0x12, 0x5a, 0x3d, 0x3e, 0xcf, 0xf5,
  0x09, 0x3d, 0x38, 0x26, 0x7c, 0xec, 0xff, 0xff, 0x80, 0xec, 0xff, 0xff,
  0x84, 0xec, 0xff, 0xff, 0x88, 0xec, 0xff, 0xff, 0x8c, 0xec, 0xff, 0xff,
  0x9a, 0xff, 0xff, 0xff, 0x04, 0x00, 0x00, 0x00, 0x04, 0x00, 0x00, 0x00,
  0xad, 0xf9, 0xff, 0xff, 0xaa, 0xff, 0xff, 0xff, 0x04, 0x00, 0x00, 0x00,
  0x20, 0x00, 0x00, 0x00, 0xbc, 0x46, 0x92, 0xbe, 0x5d, 0x1b, 0xa4, 0xbd,
  0x52, 0x7d, 0xda, 0x3d, 0xe1, 0x4c, 0xbe, 0x3c, 0x19, 0xcb, 0x41, 0x3c,
  0xab, 0xe5, 0x74, 0xbe, 0xaa, 0xe2, 0x82, 0xbe, 0xcc, 0x36, 0x7f, 0xbe,
  0xd6, 0xff, 0xff, 0xff, 0x04, 0x00, 0x00, 0x00, 0x08, 0x00, 0x00, 0x00,
  0xff, 0xff, 0xff, 0xff, 0x20, 0x01, 0x00, 0x00, 0xea, 0xff, 0xff, 0xff,
  0x04, 0x00, 0x00, 0x00, 0x08, 0x00, 0x00, 0x00, 0x20, 0x00, 0x00, 0x00,
  0x20, 0x00, 0x00, 0x00, 0x00, 0x00, 0x06, 0x00, 0x08, 0x00, 0x04, 0x00,
  0x06, 0x00, 0x00, 0x00, 0x04, 0x00, 0x00, 0x00, 0x00, 0x08, 0x00, 0x00,
  0xf2, 0xd6, 0x1f, 0xbe, 0x64, 0xf5, 0xd5, 0xbd, 0x92, 0x07, 0x97, 0xbc,
  0x5b, 0x10, 0x1c, 0xbd, 0xb6, 0xa5, 0x71, 0x3b, 0x48, 0xb7, 0xfb, 0x3c,
  0xdb, 0x4d, 0xbf, 0xbd, 0x8d, 0x52, 0x1d, 0xbe, 0x29, 0xce, 0x1a, 0xbe,
  0xc4, 0x49, 0x18, 0xbe, 0x92, 0x82, 0x5d, 0xbd, 0x6d, 0xe4, 0x02, 0xbe,
  0x48, 0xb7, 0xfb, 0xbc, 0x6d, 0x5f, 0x49, 0xbd, 0x5b, 0x8b, 0x62, 0xbd,
  0x6d, 0x5f, 0xc9, 0xbb, 0x24, 0x19, 0x21, 0xbc, 0x24, 0x19, 0xa1, 0x3a,
  0xa4, 0x56, 0x44, 0x3d, 0xd2, 0x68, 0x85, 0x3d, 0x6d, 0xe4, 0x82, 0xbc,
  0x48, 0xb7, 0x7b, 0xbd, 0x36, 0xed, 0x07, 0xbd, 0x24, 0x19, 0x21, 0x3c,
  0xff, 0x70, 0xd3, 0x3d, 0xb6, 0x2a, 0xab, 0xbc, 0x00, 0x00, 0x00, 0x00,
  0x24, 0x19, 0x21, 0x3b, 0x92, 0x07, 0x97, 0x3d, 0x92, 0x07, 0x17, 0xbd,
  0xb6, 0xa5, 0xf1, 0xbc, 0x24, 0x19, 0xa1, 0xbd, 0x92, 0x82, 0x5d, 0x3d,
  0xed, 0x21, 0x26, 0x3d, 0x5b, 0x10, 0x1c, 0xbd, 0xdb, 0x4d, 0xbf, 0x3c,
  0x24, 0x19, 0xa1, 0xbb, 0xa4, 0x56, 0x44, 0x3d, 0xb6, 0x2a, 0xab, 0xbc,
  0x92, 0x07, 0x17, 0x3d, 0xb6, 0xa5, 0x71, 0x3d, 0xdb, 0x4d, 0x3f, 0xbd,
  0x6d, 0x5f, 0xc9, 0xbb, 0x5b, 0x10, 0x1c, 0x3d, 0x52, 0xa6, 0xa8, 0x3d,
  0x2d, 0x83, 0x94, 0x3d, 0x7f, 0x33, 0x30, 0xbd, 0x64, 0xf5, 0xd5, 0xbd,
  0xdb, 0x4d, 0x3f, 0xbd, 0x24, 0x94, 0x67, 0x3d, 0xb6, 0x2a, 0xab, 0xbc,
  0xa4, 0x56, 0x44, 0xbd, 0xc9, 0xfe, 0x11, 0x3e, 0x24, 0x94, 0x67, 0xbd,
  0x6d, 0xe4, 0x82, 0x3d, 0x9b, 0x71, 0x8a, 0x3d, 0x6d, 0x5f, 0x49, 0xbd,
  0x7f, 0x33, 0xb0, 0x3d, 0xb6, 0xa5, 0x71, 0x3c, 0x24, 0x19, 0x21, 0x3c,
  0xb6, 0x2a, 0x2b, 0x3d, 0x89, 0x9d, 0xa3, 0x3d, 0x92, 0x07, 0x17, 0x3e,
  0x6d, 0xe4, 0x02, 0x3e, 0xb5, 0x35, 0xd6, 0xbd, 0x6c, 0xfe, 0xeb, 0xbd,
  0xa4, 0x90, 0x21, 0x3e, 0xf8, 0x5c, 0xe8, 0x3c, 0xf8, 0x5c, 0xe8, 0xba,
  0xd5, 0x0a, 0x13, 0xbe, 0xf8, 0x5c, 0xe8, 0x3a, 0x6c, 0xfe, 0xeb, 0x3d,
  0xd2, 0x02, 0x27, 0xbd, 0x03, 0x7d, 0x98, 0xbd, 0xf8, 0x5c, 0xe8, 0xbc,
  0x28, 0xd7, 0xd9, 0xbc, 0xcd, 0xf2, 0xce, 0x3d, 0x4c, 0xb4, 0x82, 0xbc,
  0x8a, 0xcb, 0xbc, 0xbc, 0xe5, 0xaf, 0xc7, 0xbd, 0xa2, 0x88, 0x35, 0xbd,
  0x3e, 0x8c, 0x66, 0xbe, 0x28, 0xd7, 0x59, 0xbd, 0x41, 0x94, 0x52, 0xbd,
  0xc8, 0xe2, 0xf6, 0x3c, 0xba, 0x45, 0x2e, 0x3d, 0xf8, 0x5c, 0xe8, 0x3a,
  0xf8, 0x5c, 0x68, 0x3b, 0x03, 0x7d, 0x18, 0x3d, 0xc8, 0xe2, 0xf6, 0xbc,
  0xcd, 0xf2, 0xce, 0x3d, 0xf8, 0x5c, 0xe8, 0x3a, 0x5e, 0x61, 0xa3, 0x3d,
  0xc8, 0xe2, 0xf6, 0x3d, 0x59, 0x51, 0x4b, 0x3c, 0xe8, 0xb7, 0x33, 0x3e,
  0xa7, 0x98, 0x8d, 0x3d, 0x41, 0x94, 0x52, 0xbd, 0x4c, 0xb4, 0x82, 0x3d,
  0xa7, 0x98, 0x8d, 0x3d, 0x31, 0xef, 0x1d, 0xbe, 0xf8, 0x5c, 0xe8, 0x3b,
  0x33, 0xf7, 0x89, 0xbd, 0xc8, 0xe2, 0x76, 0xbd, 0xf8, 0x5c, 0x68, 0xbc,
  0xba, 0x45, 0x2e, 0xbc, 0xba, 0x45, 0x2e, 0x3d, 0xc8, 0xe2, 0x76, 0x3d,
  0x28, 0xd7, 0xd9, 0x3c, 0x2b, 0xdf, 0x45, 0xbe, 0x77, 0x1e, 0x9c, 0xbd,
  0xba, 0x45, 0xae, 0x3d, 0xf8, 0x5c, 0x68, 0xbd, 0xb5, 0x35, 0xd6, 0xbd,
  0xba, 0x45, 0xae, 0x3d, 0xaf, 0x25, 0x7e, 0xbd, 0xf8, 0x5c, 0x68, 0x3b,
  0xaf, 0x25, 0xfe, 0x3d, 0x71, 0x0e, 0x44, 0x3d, 0x4c, 0xb4, 0x02, 0xbe,
  0xbf, 0x55, 0x86, 0x3d, 0x28, 0xd7, 0xd9, 0xbd, 0x59, 0x51, 0xcb, 0xbd,
  0x59, 0x51, 0xcb, 0x3c, 0x41, 0x94, 0xd2, 0xbd, 0x4c, 0xb4, 0x02, 0x3e,
  0x54, 0x41, 0xf3, 0x3d, 0xea, 0xbf, 0x9f, 0x3c, 0x9c, 0x78, 0x11, 0x3d,
  0x26, 0xf6, 0xc1, 0x3b, 0x61, 0xb7, 0xa9, 0xbc, 0x9c, 0x78, 0x91, 0x3b,
  0x61, 0xb7, 0xa9, 0xbd, 0xc4, 0x70, 0x0e, 0xbe, 0xc4, 0xd6, 0xb5, 0xbd,
  0x12, 0x2d, 0xd7, 0xbd, 0xff, 0x97, 0x9d, 0xbd, 0x88, 0x15, 0x4e, 0x3d,
  0xb0, 0x73, 0xf2, 0xbc, 0x26, 0x90, 0x9a, 0xbd, 0x26, 0xf6, 0x41, 0x3c,
  0x3a, 0xbf, 0x2c, 0xbe, 0x12, 0x93, 0x7e, 0xbd, 0x00, 0x00, 0x00, 0x00,
  0x9c, 0x78, 0x11, 0x3c, 0xb0, 0xa7, 0xa3, 0xbd, 0x61, 0xb7, 0x29, 0x3c,
  0x75, 0x4c, 0xe3, 0xbd, 0x4e, 0x88, 0x17, 0xbd, 0x12, 0x93, 0x7e, 0xbd,
  0xeb, 0x68, 0x8b, 0x3d, 0xeb, 0xce, 0x32, 0xbe, 0xeb, 0x34, 0x5a, 0xbd,
  0xc4, 0xd6, 0x35, 0x3d, 0x3a, 0x72, 0x40, 0x3e, 0x75, 0x80, 0x94, 0xbd,
  0x9c, 0x78, 0x11, 0xbe, 0xc4, 0xd6, 0xb5, 0x3c, 0x9c, 0x78, 0x11, 0xbd,
  0xfe, 0x63, 0xec, 0xbd, 0xff, 0xfd, 0xc4, 0xbd, 0x3a, 0x72, 0x40, 0x3e,
  0x61, 0xb7, 0x29, 0x3d, 0xc4, 0x23, 0x22, 0x3e, 0xeb, 0x34, 0x5a, 0x3c,
  0x3a, 0x59, 0x85, 0x3c, 0x9c, 0x44, 0xe0, 0xbd, 0x26, 0xf6, 0xc1, 0xbb,
  0xeb, 0xce, 0x32, 0x3e, 0x61, 0xb7, 0x29, 0x3c, 0x75, 0x33, 0x28, 0xbe,
  0xeb, 0x34, 0x5a, 0xbd, 0xb0, 0x73, 0xf2, 0xbd, 0x9c, 0x78, 0x91, 0xbc,
  0x9c, 0xde, 0xb8, 0x3d, 0x3a, 0x25, 0xd4, 0x3d, 0x9c, 0x44, 0x60, 0x3d,
  0x26, 0xf6, 0xc1, 0xbd, 0xc4, 0x70, 0x8e, 0xbd, 0x89, 0x62, 0x3a, 0xbe,
  0xeb, 0x1b, 0x1f, 0xbe, 0x26, 0x90, 0x1a, 0xbe, 0x61, 0x6a, 0x3d, 0xbe,
  0x3a, 0x25, 0xd4, 0xbd, 0xb0, 0xa7, 0x23, 0x3e, 0xc4, 0xd6, 0xb5, 0xbc,
  0x3a, 0x59, 0x85, 0x3c, 0xeb, 0x34, 0xda, 0x3c, 0xd7, 0x05, 0xc8, 0x3d,
  0x9c, 0x78, 0x91, 0x3d, 0x75, 0x4c, 0xe3, 0x3d, 0xfe, 0x63, 0xec, 0x3d,
  0x9c, 0x17, 0x37, 0x3d, 0xaf, 0x2f, 0x15, 0xbd, 0x86, 0xc7, 0x5f, 0x3d,
  0xa4, 0x87, 0x29, 0x3d, 0xa8, 0xbf, 0xa2, 0xbc, 0xa8, 0xbf, 0x22, 0x3c,
  0x8a, 0xff, 0xd8, 0xbc, 0x99, 0xdf, 0xbd, 0xbd, 0xa0, 0x4f, 0xb0, 0x3c,
  0x7b, 0x1f, 0x74, 0xbc, 0x9c, 0x17, 0x37, 0x3d, 0xa0, 0x4f, 0xb0, 0x3d,
  0xaf, 0x2f, 0x15, 0xbd, 0xa0, 0x4f, 0xb0, 0x3c, 0x9c, 0x17, 0xb7, 0xbd,
  0x9c, 0x17, 0x37, 0xbd, 0x8b, 0x4d, 0x57, 0xbe, 0x8a, 0xff, 0xd8, 0x3c,
  0xab, 0xf7, 0x1b, 0x3d, 0x9e, 0xb3, 0xb3, 0xbd, 0xa4, 0x87, 0x29, 0xbd,
  0xae, 0xe1, 0x16, 0xbe, 0x8e, 0x37, 0x52, 0x3d, 0xab, 0xf7, 0x1b, 0xbd,
  0xa2, 0xeb, 0xac, 0xbd, 0x97, 0x43, 0xc1, 0xbd, 0xb1, 0xcb, 0x91, 0x3d,
  0xa8, 0xbf, 0xa2, 0xbc, 0x7b, 0x1f, 0x74, 0xbd, 0xb1, 0xcb, 0x11, 0xbe,
  0x86, 0xc7, 0x5f, 0xbd, 0x83, 0x8f, 0x66, 0xbd, 0xb0, 0x7d, 0x13, 0xbe,
  0x86, 0xc7, 0x5f, 0x3d, 0x79, 0x83, 0xf7, 0xbd, 0xb3, 0xb5, 0x0c, 0x3e,
  0xa0, 0x4f, 0x30, 0xbd, 0x83, 0x8f, 0xe6, 0x3c, 0x8a, 0xff, 0x58, 0x3c,
  0x7d, 0xbb, 0xf0, 0x3d, 0x84, 0x2b, 0xe3, 0xbd, 0xb6, 0x9f, 0x07, 0x3c,
  0xa2, 0xeb, 0x2c, 0x3e, 0xaf, 0x2f, 0x95, 0xbc, 0x7f, 0x57, 0xed, 0xbd,
  0xaf, 0x2f, 0x95, 0xbc, 0xb6, 0x9f, 0x87, 0x3d, 0x7b, 0x1f, 0x74, 0xbd,
  0xab, 0xf7, 0x1b, 0xbd, 0xa8, 0xbf, 0xa2, 0x3b, 0x9e, 0xb3, 0xb3, 0x3d,
  0x8c, 0x9b, 0xd5, 0x3d, 0x8a, 0xff, 0x58, 0xbb, 0x7b, 0x1f, 0xf4, 0x3c,
  0xba, 0xd7, 0x80, 0x3d, 0xa0, 0x4f, 0xb0, 0x3d, 0xa7, 0x71, 0x24, 0xbe,
  0xaf, 0x2f, 0x15, 0xbd, 0xa8, 0xbf, 0xa2, 0x3b, 0xad, 0x93, 0x98, 0x3d,
  0xb6, 0x9f, 0x07, 0x3d, 0x8a, 0xff, 0x58, 0xbd, 0xb3, 0x67, 0x0e, 0x3e,
  0xb6, 0x9f, 0x87, 0x3c, 0xdf, 0x28, 0x21, 0xbc, 0x17, 0x73, 0xc9, 0x3c,
  0xfb, 0x4d, 0xb5, 0xbc, 0x8d, 0xe6, 0x1f, 0x3e, 0x3c, 0xa4, 0x9e, 0x3d,
  0x3c, 0xa4, 0x9e, 0xbd, 0x89, 0x60, 0x3f, 0x3d, 0x51, 0x16, 0x17, 0xbd,
  0xae, 0x91, 0x94, 0xbd, 0xdf, 0x28, 0xa1, 0x3c, 0x9e, 0xd2, 0xb7, 0x3d,
  0x4e, 0xbd, 0xf1, 0xbb, 0xb4, 0x44, 0x30, 0xbd, 0x1d, 0x26, 0xe5, 0xbd,
  0xe5, 0xdb, 0xbc, 0xbd, 0xdf, 0x28, 0xa1, 0x3a, 0x17, 0x73, 0xc9, 0xbc,
  0x5e, 0x7c, 0x4e, 0xbd, 0x5e, 0x7c, 0x4e, 0xbd, 0xb4, 0x44, 0xb0, 0x3d,
  0xdf, 0x28, 0x21, 0xbb, 0xe5, 0xdb, 0xbc, 0x3d, 0xc3, 0x03, 0x0d, 0x3c,
  0xd0, 0x69, 0x44, 0xbd, 0x17, 0x73, 0xc9, 0x3c, 0x01, 0x01, 0xd1, 0x3d,
  0x42, 0x57, 0xba, 0x3d, 0x7c, 0xfa, 0x07, 0xbd, 0xfb, 0x4d, 0xb5, 0xbd,
  0x1d, 0x26, 0xe5, 0xbd, 0xfb, 0x4d, 0xb5, 0xbc, 0x35, 0xf1, 0x02, 0xbe,
  0x92, 0x6c, 0x80, 0xbd, 0x0a, 0x0d, 0x12, 0x3d, 0x00, 0x00, 0x00, 0x00,
  0xec, 0x8e, 0xd8, 0x3d, 0x4e, 0xbd, 0xf1, 0x3c, 0xc3, 0x03, 0x0d, 0xbc,
  0x17, 0x73, 0x49, 0xbd, 0x51, 0x16, 0x97, 0xbd, 0xae, 0x91, 0x94, 0xbd,
  0x0a, 0x0d, 0x92, 0x3d, 0x42, 0x57, 0x3a, 0xbd, 0x35, 0xf1, 0x82, 0xbc,
  0x00, 0x00, 0x00, 0x00, 0xc1, 0xaa, 0xe7, 0xbd, 0x9e, 0xd2, 0xb7, 0xbd,
  0x5e, 0x7c, 0x4e, 0xbd, 0x4e, 0xbd, 0xf1, 0xbb, 0x82, 0xad, 0xa3, 0x3d,
  0x51, 0x16, 0x17, 0x3d, 0x17, 0x73, 0xc9, 0x3d, 0x57, 0xc9, 0xb2, 0xbd,
  0xce, 0x3c, 0x09, 0x3e, 0x10, 0xc0, 0xad, 0xbd, 0xec, 0x8e, 0xd8, 0xbd,
  0x17, 0x73, 0x49, 0xbc, 0x0a, 0x0d, 0x12, 0xbd, 0xdf, 0x28, 0x21, 0x3c,
  0x39, 0x4b, 0xf9, 0x3d, 0x35, 0xf1, 0x82, 0x3c, 0x33, 0x98, 0xdd, 0xbc,
  0xdf, 0x28, 0xa1, 0xbb, 0xb4, 0x44, 0x30, 0xbd, 0x6f, 0xe7, 0xc6, 0xbc,
  0x4b, 0xa1, 0x78, 0x3d, 0x4b, 0xa1, 0x78, 0xbc, 0xeb, 0x4c, 0x0a, 0xbe,
  0x34, 0xb0, 0x40, 0x3e, 0x6f, 0xe7, 0x46, 0xbc, 0xe6, 0x55, 0x53, 0xbd,
  0x81, 0x0a, 0xae, 0x3d, 0x12, 0xfa, 0x00, 0x3e, 0x6f, 0xe7, 0x46, 0xbb,
  0x5d, 0xc4, 0xdf, 0xbc, 0x46, 0xd3, 0x27, 0xbd, 0x93, 0x2d, 0x15, 0x3e,
  0x46, 0xd3, 0x27, 0x3e, 0x4b, 0xa1, 0x78, 0xbc, 0x6f, 0xe7, 0x46, 0xbb,
  0x58, 0xf6, 0x0e, 0x3d, 0x93, 0x2d, 0x15, 0xbc, 0x81, 0x0a, 0x2e, 0x3c,
  0x46, 0xd3, 0xa7, 0xbd, 0xe1, 0x87, 0x82, 0xbd, 0x50, 0x98, 0x2f, 0x3e,
  0xaa, 0x1e, 0x4d, 0xbd, 0x93, 0x2d, 0x95, 0x3c, 0x21, 0x8d, 0x59, 0x3d,
  0x21, 0x8d, 0xd9, 0x3d, 0x89, 0x68, 0x0d, 0xbe, 0x93, 0x2d, 0x95, 0xbb,
  0xd4, 0x32, 0x6c, 0xbd, 0xf8, 0x78, 0x3a, 0xbd, 0x4b, 0xa1, 0x78, 0xbc,
  0x4b, 0xa1, 0x78, 0xbd, 0x1c, 0xbf, 0x88, 0x3c, 0x0a, 0x9c, 0xa1, 0xbc,
  0x4b, 0xa1, 0xf8, 0x3b, 0x31, 0x49, 0x98, 0x3d, 0x93, 0x2d, 0x15, 0x3c,
  0x0a, 0x9c, 0xa1, 0x3d, 0x0f, 0x6a, 0xf2, 0x3d, 0x84, 0x71, 0xd6, 0xbd,
  0x58, 0xf6, 0x0e, 0x3d, 0x81, 0x0a, 0x2e, 0x3c, 0x98, 0xfb, 0xe5, 0xbd,
  0x0f, 0x6a, 0x72, 0xbd, 0x77, 0x45, 0x26, 0x3e, 0x4b, 0xa1, 0xf8, 0xbb,
  0x58, 0xf6, 0x8e, 0xbd, 0x93, 0x2d, 0x95, 0x3c, 0x6f, 0xe7, 0xc6, 0xbd,
  0x98, 0xfb, 0xe5, 0xbd, 0x6f, 0xe7, 0xc6, 0xbb, 0xe1, 0x87, 0x02, 0xbe,
  0x81, 0x0a, 0xae, 0x3c, 0x4b, 0xa1, 0x78, 0x3d, 0x4b, 0xa1, 0x78, 0x3c,
  0xd4, 0x32, 0xec, 0x3c, 0xcf, 0x64, 0x9b, 0xbd, 0xd4, 0x32, 0xec, 0x3c,
  0x6f, 0xe7, 0xc6, 0x3a, 0xe6, 0x55, 0x53, 0xbd, 0xe6, 0x55, 0xd3, 0xbd,
  0x34, 0xb0, 0x40, 0x3d, 0x5d, 0xc4, 0x5f, 0xbd, 0xa0, 0x59, 0x45, 0xbe,
  0x66, 0xd5, 0x20, 0xbe, 0x5f, 0x10, 0x26, 0xbe, 0x2b, 0xe9, 0x9c, 0xbc,
  0xc8, 0x22, 0x66, 0x3c, 0xcb, 0x5f, 0x85, 0xbd, 0x0f, 0xd5, 0xb1, 0x3c,
  0x92, 0x37, 0xaf, 0xbd, 0xd2, 0x24, 0x00, 0xbe, 0x36, 0x36, 0xf3, 0xbd,
  0x01, 0x4b, 0x3c, 0xbc, 0x28, 0xac, 0xfd, 0xbd, 0x89, 0xae, 0x06, 0xbe,
  0x01, 0x4b, 0x3c, 0xbd, 0x39, 0x73, 0x12, 0xbc, 0x40, 0x38, 0x0d, 0xbd,
  0xd6, 0xac, 0x5b, 0xbd, 0x39, 0x73, 0x12, 0x3d, 0x36, 0x36, 0xf3, 0xbd,
  0x01, 0x4b, 0xbc, 0xbd, 0x1d, 0x5f, 0xa7, 0xbc, 0x1d, 0x5f, 0xa7, 0x3d,
  0x40, 0x38, 0x0d, 0x3d, 0x44, 0xc0, 0xe8, 0xbd, 0xf2, 0xc0, 0x46, 0x3d,
  0xba, 0x98, 0x70, 0x3d, 0xcb, 0x5f, 0x05, 0xbe, 0x24, 0x24, 0x22, 0x3d,
  0xcf, 0xe7, 0x60, 0xbd, 0x0f, 0xd5, 0x31, 0x3d, 0x01, 0x4b, 0x3c, 0x3d,
  0x40, 0x38, 0x0d, 0x3e, 0xac, 0x0e, 0x7b, 0x3b, 0x0f, 0xd5, 0x31, 0x3d,
  0x99, 0xfc, 0xa9, 0x3d, 0x53, 0x4a, 0xde, 0x3d, 0x01, 0x4b, 0xbc, 0x3d,
  0xd6, 0xac, 0x5b, 0xbd, 0xf2, 0xc0, 0x46, 0xbd, 0x89, 0xae, 0x06, 0xbe,
  0xac, 0x0e, 0xfb, 0x3b, 0x7d, 0xe8, 0xbe, 0x3d, 0x1d, 0x5f, 0x27, 0xbc,
  0x4f, 0xc2, 0x02, 0x3d, 0xc1, 0x5d, 0x6b, 0x3d, 0x0f, 0xd5, 0x31, 0x3d,
  0x39, 0x73, 0x12, 0x3c, 0xeb, 0xfb, 0x4b, 0x3d, 0xd6, 0xac, 0x5b, 0xbd,
  0xf2, 0xc0, 0xc6, 0x3c, 0x68, 0x99, 0xce, 0x3d, 0xf2, 0xc0, 0xc6, 0xbc,
  0x2b, 0xe9, 0x9c, 0x3c, 0xac, 0x0e, 0xfb, 0xbb, 0xe4, 0x36, 0x51, 0xbd,
  0xe4, 0x36, 0xd1, 0x3d, 0xe4, 0x36, 0x51, 0xbd, 0xfa, 0x85, 0x41, 0x3d,
  0xcb, 0x5f, 0x85, 0x3d, 0x1d, 0x5f, 0x27, 0x3d, 0xc8, 0x22, 0x66, 0xbd,
  0x16, 0x9a, 0x2c, 0xbd, 0x0f, 0xd5, 0xb1, 0x3c, 0x4f, 0xc2, 0x02, 0x3e,
  0xc1, 0x5d, 0x6b, 0x3d, 0xa1, 0xc3, 0x00, 0x3e, 0xc8, 0x3d, 0xb7, 0xbd,
  0x47, 0x19, 0xc6, 0xbc, 0x47, 0x19, 0x46, 0x3d, 0x47, 0x19, 0xc6, 0x3b,
  0x9f, 0x7a, 0x9e, 0x3b, 0x8c, 0x3d, 0x03, 0x3e, 0x98, 0x9f, 0xf7, 0x3c,
  0x33, 0xdc, 0xaa, 0x3d, 0x8c, 0x3d, 0x83, 0xbd, 0x9d, 0x31, 0xbc, 0xbc,
  0xee, 0xb7, 0xed, 0xbb, 0xf3, 0x49, 0x32, 0x3d, 0x9d, 0x31, 0xbc, 0x3c,
  0x56, 0x6e, 0x09, 0x3e, 0x9f, 0x7a, 0x1e, 0x3b, 0x9d, 0x31, 0xbc, 0x3d,
  0x45, 0xd0, 0x63, 0xbd, 0xa1, 0xc3, 0x80, 0xbd, 0x8c, 0x3d, 0x83, 0x3d,
  0xf5, 0x92, 0x94, 0xbc, 0xee, 0xb7, 0xed, 0xbc, 0x47, 0x19, 0x46, 0xbd,
  0x1c, 0x0d, 0xcb, 0x3d, 0x76, 0xb7, 0x05, 0x3d, 0xc8, 0x3d, 0xb7, 0xbd,
  0x72, 0x25, 0x41, 0xbd, 0x49, 0x62, 0x28, 0xbd, 0xca, 0x86, 0x19, 0xbd,
  0x4b, 0xab, 0x0a, 0x3d, 0xa1, 0xc3, 0x00, 0x3e, 0xf3, 0x49, 0xb2, 0x3d,
  0xb0, 0x6e, 0xd7, 0xbd, 0xe0, 0x0c, 0x97, 0xbd, 0x9f, 0x7a, 0x9e, 0x3b,
  0xc8, 0x3d, 0xb7, 0x3d, 0x06, 0x87, 0xcd, 0x3d, 0x9f, 0x7a, 0x9e, 0x3a,
  0x49, 0x62, 0xa8, 0xbd, 0x9d, 0x31, 0xbc, 0x3d, 0x45, 0xd0, 0xe3, 0x3c,
  0xc6, 0xf4, 0x54, 0x3d, 0x61, 0x31, 0x88, 0xbd, 0x9f, 0x7a, 0x1e, 0x3d,
  0x4b, 0xab, 0x8a, 0xbd, 0x9d, 0x31, 0x3c, 0xbd, 0xd9, 0x31, 0xf0, 0xbd,
  0x76, 0xb7, 0x05, 0x3d, 0x4b, 0xab, 0x8a, 0xbd, 0x4b, 0xab, 0x8a, 0x3c,
  0x47, 0x19, 0xc6, 0xbb, 0xf3, 0x49, 0x32, 0x3c, 0x0b, 0x19, 0x12, 0xbe,
  0x1a, 0xc4, 0x68, 0xbd, 0x74, 0x6e, 0xa3, 0x3d, 0x76, 0xb7, 0x85, 0xbd,
  0x9f, 0x7a, 0x9e, 0xbd, 0xdd, 0xc3, 0xb4, 0xbd, 0x20, 0x9f, 0x8f, 0xbd,
  0xae, 0x25, 0xf5, 0xbd, 0xf1, 0x00, 0x50, 0x3d, 0xaa, 0x3d, 0x1d, 0xbe,
  0x1c, 0x0d, 0x4b, 0xbd, 0xf3, 0x49, 0x32, 0xbc, 0x08, 0xf5, 0xff, 0xff,
  0x0c, 0xf5, 0xff, 0xff, 0x0f, 0x00, 0x00, 0x00, 0x4d, 0x4c, 0x49, 0x52,
  0x20, 0x43, 0x6f, 0x6e, 0x76, 0x65, 0x72, 0x74, 0x65, 0x64, 0x2e, 0x00,
  0x01, 0x00, 0x00, 0x00, 0x14, 0x00, 0x00, 0x00, 0x00, 0x00, 0x0e, 0x00,
  0x18, 0x00, 0x14, 0x00, 0x10, 0x00, 0x0c, 0x00, 0x08, 0x00, 0x04, 0x00,
  0x0e, 0x00, 0x00, 0x00, 0x14, 0x00, 0x00, 0x00, 0x1c, 0x00, 0x00, 0x00,
  0xf8, 0x01, 0x00, 0x00, 0xfc, 0x01, 0x00, 0x00, 0x00, 0x02, 0x00, 0x00,
  0x04, 0x00, 0x00, 0x00, 0x6d, 0x61, 0x69, 0x6e, 0x00, 0x00, 0x00, 0x00,
  0x08, 0x00, 0x00, 0x00, 0xa4, 0x01, 0x00, 0x00, 0x40, 0x01, 0x00, 0x00,
  0x0c, 0x01, 0x00, 0x00, 0xac, 0x00, 0x00, 0x00, 0x84, 0x00, 0x00, 0x00,
  0x4c, 0x00, 0x00, 0x00, 0x28, 0x00, 0x00, 0x00, 0x04, 0x00, 0x00, 0x00,
  0x16, 0xff, 0xff, 0xff, 0x0c, 0x00, 0x00, 0x00, 0x10, 0x00, 0x00, 0x00,
  0x07, 0x00, 0x00, 0x00, 0x01, 0x00, 0x00, 0x00, 0x0e, 0x00, 0x00, 0x00,
  0x01, 0x00, 0x00, 0x00, 0x0d, 0x00, 0x00, 0x00, 0x36, 0xff, 0xff, 0xff,
  0x0c, 0x00, 0x00, 0x00, 0x10, 0x00, 0x00, 0x00, 0x06, 0x00, 0x00, 0x00,
  0x01, 0x00, 0x00, 0x00, 0x0d, 0x00, 0x00, 0x00, 0x01, 0x00, 0x00, 0x00,
  0x0c, 0x00, 0x00, 0x00, 0x2a, 0xff, 0xff, 0xff, 0x14, 0x00, 0x00, 0x00,
  0x00, 0x00, 0x00, 0x08, 0x10, 0x00, 0x00, 0x00, 0x14, 0x00, 0x00, 0x00,
  0x05, 0x00, 0x00, 0x00, 0xdc, 0xf5, 0xff, 0xff, 0x01, 0x00, 0x00, 0x00,
  0x0c, 0x00, 0x00, 0x00, 0x03, 0x00, 0x00, 0x00, 0x0a, 0x00, 0x00, 0x00,
  0x0b, 0x00, 0x00, 0x00, 0x05, 0x00, 0x00, 0x00, 0x8a, 0xff, 0xff, 0xff,
  0x0c, 0x00, 0x00, 0x00, 0x10, 0x00, 0x00, 0x00, 0x04, 0x00, 0x00, 0x00,
  0x01, 0x00, 0x00, 0x00, 0x0a, 0x00, 0x00, 0x00, 0x02, 0x00, 0x00, 0x00,
  0x09, 0x00, 0x00, 0x00, 0x03, 0x00, 0x00, 0x00, 0x82, 0xff, 0xff, 0xff,
  0x24, 0x00, 0x00, 0x00, 0x00, 0x00, 0x00, 0x05, 0x34, 0x00, 0x00, 0x00,
  0x38, 0x00, 0x00, 0x00, 0x03, 0x00, 0x00, 0x00, 0x00, 0x00, 0x0e, 0x00,
  0x18, 0x00, 0x17, 0x00, 0x10, 0x00, 0x0c, 0x00, 0x08, 0x00, 0x04, 0x00,
  0x0e, 0x00, 0x00, 0x00, 0x02, 0x00, 0x00, 0x00, 0x02, 0x00, 0x00, 0x00,
  0x02, 0x00, 0x00, 0x00, 0x02, 0x00, 0x00, 0x00, 0x00, 0x00, 0x00, 0x01,
  0x01, 0x00, 0x00, 0x00, 0x09, 0x00, 0x00, 0x00, 0x01, 0x00, 0x00, 0x00,
  0x08, 0x00, 0x00, 0x00, 0x00, 0x00, 0x0a, 0x00, 0x10, 0x00, 0x0c, 0x00,
  0x08, 0x00, 0x04, 0x00, 0x0a, 0x00, 0x00, 0x00, 0x0c, 0x00, 0x00, 0x00,
  0x10, 0x00, 0x00, 0x00, 0x02, 0x00, 0x00, 0x00, 0x01, 0x00, 0x00, 0x00,
  0x08, 0x00, 0x00, 0x00, 0x01, 0x00, 0x00, 0x00, 0x07, 0x00, 0x00, 0x00,
  0x00, 0x00, 0x0e, 0x00, 0x18, 0x00, 0x14, 0x00, 0x10, 0x00, 0x0c, 0x00,
  0x0b, 0x00, 0x04, 0x00, 0x0e, 0x00, 0x00, 0x00, 0x20, 0x00, 0x00, 0x00,
  0x00, 0x00, 0x00, 0x01, 0x2c, 0x00, 0x00, 0x00, 0x30, 0x00, 0x00, 0x00,
  0x01, 0x00, 0x00, 0x00, 0x0c, 0x00, 0x14, 0x00, 0x13, 0x00, 0x0c, 0x00,
  0x08, 0x00, 0x07, 0x00, 0x0c, 0x00, 0x00, 0x00, 0x00, 0x00, 0x00, 0x01,
  0x02, 0x00, 0x00, 0x00, 0x02, 0x00, 0x00, 0x00, 0x00, 0x00, 0x00, 0x01,
  0x01, 0x00, 0x00, 0x00, 0x07, 0x00, 0x00, 0x00, 0x03, 0x00, 0x00, 0x00,
  0x06, 0x00, 0x00, 0x00, 0x01, 0x00, 0x00, 0x00, 0x04, 0x00, 0x00, 0x00,
  0x00, 0x00, 0x0e, 0x00, 0x14, 0x00, 0x00, 0x00, 0x10, 0x00, 0x0c, 0x00,
  0x0b, 0x00, 0x04, 0x00, 0x0e, 0x00, 0x00, 0x00, 0x18, 0x00, 0x00, 0x00,
  0x00, 0x00, 0x00, 0x4a, 0x18, 0x00, 0x00, 0x00, 0x1c, 0x00, 0x00, 0x00,
  0x08, 0x00, 0x08, 0x00, 0x00, 0x00, 0x07, 0x00, 0x08, 0x00, 0x00, 0x00,
  0x00, 0x00, 0x00, 0x01, 0x01, 0x00, 0x00, 0x00, 0x06, 0x00, 0x00, 0x00,
  0x02, 0x00, 0x00, 0x00, 0x00, 0x00, 0x00, 0x00, 0x02, 0x00, 0x00, 0x00,
  0x01, 0x00, 0x00, 0x00, 0x0e, 0x00, 0x00, 0x00, 0x01, 0x00, 0x00, 0x00,
  0x00, 0x00, 0x00, 0x00, 0x0f, 0x00, 0x00, 0x00, 0x7c, 0x08, 0x00, 0x00,
  0xc4, 0x07, 0x00, 0x00, 0x5c, 0x07, 0x00, 0x00, 0xfc, 0x06, 0x00, 0x00,
  0xa0, 0x06, 0x00, 0x00, 0x14, 0x06, 0x00, 0x00, 0x94, 0x05, 0x00, 0x00,
  0xbc, 0x04, 0x00, 0x00, 0x64, 0x03, 0x00, 0x00, 0xb8, 0x02, 0x00, 0x00,
  0x3c, 0x02, 0x00, 0x00, 0x94, 0x01, 0x00, 0x00, 0xe4, 0x00, 0x00, 0x00,
  0x60, 0x00, 0x00, 0x00, 0x04, 0x00, 0x00, 0x00, 0xd6, 0xf7, 0xff, 0xff,
  0x00, 0x00, 0x00, 0x01, 0x14, 0x00, 0x00, 0x00, 0x1c, 0x00, 0x00, 0x00,
  0x1c, 0x00, 0x00, 0x00, 0x0f, 0x00, 0x00, 0x00, 0x34, 0x00, 0x00, 0x00,
  0x02, 0x00, 0x00, 0x00, 0xff, 0xff, 0xff, 0xff, 0x01, 0x00, 0x00, 0x00,
  0xb8, 0xf7, 0xff, 0xff, 0x19, 0x00, 0x00, 0x00, 0x53, 0x74, 0x61, 0x74,
  0x65, 0x66, 0x75, 0x6c, 0x50, 0x61, 0x72, 0x74, 0x69, 0x74, 0x69, 0x6f,
  0x6e, 0x65, 0x64, 0x43, 0x61, 0x6c, 0x6c, 0x3a, 0x30, 0x00, 0x00, 0x00,
  0x02, 0x00, 0x00, 0x00, 0x01, 0x00, 0x00, 0x00, 0x01, 0x00, 0x00, 0x00,
  0x26, 0xfd, 0xff, 0xff, 0x00, 0x00, 0x00, 0x01, 0x18, 0x00, 0x00, 0x00,
  0x20, 0x00, 0x00, 0x00, 0x40, 0x00, 0x00, 0x00, 0x0e, 0x00, 0x00, 0x00,
  0x00, 0x00, 0x00, 0x09, 0x58, 0x00, 0x00, 0x00, 0x02, 0x00, 0x00, 0x00,
  0xff, 0xff, 0xff, 0xff, 0x01, 0x00, 0x00, 0x00, 0x7c, 0xfa, 0xff, 0xff,
  0x08, 0x00, 0x00, 0x00, 0x14, 0x00, 0x00, 0x00, 0x01, 0x00, 0x00, 0x00,
  0x80, 0xff, 0xff, 0xff, 0xff, 0xff, 0xff, 0xff, 0x00, 0x00, 0x00, 0x00,
  0x01, 0x00, 0x00, 0x00, 0x00, 0x00, 0x80, 0x3b, 0x1d, 0x00, 0x00, 0x00,
  0x6d, 0x6f, 0x64, 0x65, 0x6c, 0x5f, 0x37, 0x2f, 0x71, 0x75, 0x61, 0x6e,
  0x74, 0x5f, 0x64, 0x65, 0x6e, 0x73, 0x65, 0x5f, 0x39, 0x2f, 0x53, 0x69,
  0x67, 0x6d, 0x6f, 0x69, 0x64, 0x00, 0x00, 0x00, 0x02, 0x00, 0x00, 0x00,
  0x01, 0x00, 0x00, 0x00, 0x01, 0x00, 0x00, 0x00, 0xa6, 0xfd, 0xff, 0xff,
  0x00, 0x00, 0x00, 0x01, 0x18, 0x00, 0x00, 0x00, 0x20, 0x00, 0x00, 0x00,
  0x40, 0x00, 0x00, 0x00, 0x0d, 0x00, 0x00, 0x00, 0x00, 0x00, 0x00, 0x09,
  0x74, 0x00, 0x00, 0x00, 0x02, 0x00, 0x00, 0x00, 0xff, 0xff, 0xff, 0xff,
  0x01, 0x00, 0x00, 0x00, 0xfc, 0xfa, 0xff, 0xff, 0x08, 0x00, 0x00, 0x00,
  0x14, 0x00, 0x00, 0x00, 0x01, 0x00, 0x00, 0x00, 0xdb, 0xff, 0xff, 0xff,
  0xff, 0xff, 0xff, 0xff, 0x00, 0x00, 0x00, 0x00, 0x01, 0x00, 0x00, 0x00,
  0xd2, 0x57, 0xc2, 0x3d, 0x3a, 0x00, 0x00, 0x00, 0x6d, 0x6f, 0x64, 0x65,
  0x6c, 0x5f, 0x37, 0x2f, 0x71, 0x75, 0x61, 0x6e, 0x74, 0x5f, 0x64, 0x65,
  0x6e, 0x73, 0x65, 0x5f, 0x39, 0x2f, 0x4d, 0x61, 0x74, 0x4d, 0x75, 0x6c,
  0x3b, 0x6d, 0x6f, 0x64, 0x65, 0x6c, 0x5f, 0x37, 0x2f, 0x71, 0x75, 0x61,
  0x6e, 0x74, 0x5f, 0x64, 0x65, 0x6e, 0x73, 0x65, 0x5f, 0x39, 0x2f, 0x42,
  0x69, 0x61, 0x73, 0x41, 0x64, 0x64, 0x00, 0x00, 0x02, 0x00, 0x00, 0x00,
  0x01, 0x00, 0x00, 0x00, 0x01, 0x00, 0x00, 0x00, 0x00, 0x00, 0x0e, 0x00,
  0x18, 0x00, 0x14, 0x00, 0x13, 0x00, 0x0c, 0x00, 0x08, 0x00, 0x04, 0x00,
  0x0e, 0x00, 0x00, 0x00, 0x14, 0x00, 0x00, 0x00, 0x30, 0x00, 0x00, 0x00,
  0x0c, 0x00, 0x00, 0x00, 0x00, 0x00, 0x00, 0x09, 0x84, 0x00, 0x00, 0x00,
  0x94, 0xfb, 0xff, 0xff, 0x08, 0x00, 0x00, 0x00, 0x10, 0x00, 0x00, 0x00,
  0x01, 0x00, 0x00, 0x00, 0x00, 0x00, 0x00, 0x00, 0x00, 0x00, 0x00, 0x00,
  0x01, 0x00, 0x00, 0x00, 0xd3, 0x83, 0xb1, 0x3b, 0x59, 0x00, 0x00, 0x00,
  0x6d, 0x6f, 0x64, 0x65, 0x6c, 0x5f, 0x37, 0x2f, 0x71, 0x75, 0x61, 0x6e,
  0x74, 0x5f, 0x64, 0x65, 0x6e, 0x73, 0x65, 0x5f, 0x39, 0x2f, 0x4d, 0x61,
  0x74, 0x4d, 0x75, 0x6c, 0x3b, 0x6d, 0x6f, 0x64, 0x65, 0x6c, 0x5f, 0x37,
  0x2f, 0x71, 0x75, 0x61, 0x6e, 0x74, 0x5f, 0x64, 0x65, 0x6e, 0x73, 0x65,
  0x5f, 0x39, 0x2f, 0x4c, 0x61, 0x73, 0x74, 0x56, 0x61, 0x6c, 0x75, 0x65,
  0x51, 0x75, 0x61, 0x6e, 0x74, 0x2f, 0x46, 0x61, 0x6b, 0x65, 0x51, 0x75,
  0x61, 0x6e, 0x74, 0x57, 0x69, 0x74, 0x68, 0x4d, 0x69, 0x6e, 0x4d, 0x61,
  0x78, 0x56, 0x61, 0x72, 0x73, 0x00, 0x00, 0x00, 0x02, 0x00, 0x00, 0x00,
  0x01, 0x00, 0x00, 0x00, 0x20, 0x01, 0x00, 0x00, 0xf6, 0xfe, 0xff, 0xff,
  0x00, 0x00, 0x00, 0x01, 0x18, 0x00, 0x00, 0x00, 0x20, 0x00, 0x00, 0x00,
  0x3c, 0x00, 0x00, 0x00, 0x0b, 0x00, 0x00, 0x00, 0x00, 0x00, 0x00, 0x09,
  0x50, 0x00, 0x00, 0x00, 0x02, 0x00, 0x00, 0x00, 0xff, 0xff, 0xff, 0xff,
  0x20, 0x01, 0x00, 0x00, 0x4c, 0xfc, 0xff, 0xff, 0x08, 0x00, 0x00, 0x00,
  0x10, 0x00, 0x00, 0x00, 0x01, 0x00, 0x00, 0x00, 0x92, 0xff, 0xff, 0xff,
  0xff, 0xff, 0xff, 0xff, 0x01, 0x00, 0x00, 0x00, 0xdc, 0x99, 0x46, 0x3d,
  0x19, 0x00, 0x00, 0x00, 0x6d, 0x6f, 0x64, 0x65, 0x6c, 0x5f, 0x37, 0x2f,
  0x66, 0x6c, 0x61, 0x74, 0x74, 0x65, 0x6e, 0x5f, 0x35, 0x2f, 0x52, 0x65,
  0x73, 0x68, 0x61, 0x70, 0x65, 0x00, 0x00, 0x00, 0x02, 0x00, 0x00, 0x00,
  0x01, 0x00, 0x00, 0x00, 0x20, 0x01, 0x00, 0x00, 0x6e, 0xff, 0xff, 0xff,
  0x00, 0x00, 0x00, 0x01, 0x18, 0x00, 0x00, 0x00, 0x28, 0x00, 0x00, 0x00,
  0x48, 0x00, 0x00, 0x00, 0x0a, 0x00, 0x00, 0x00, 0x00, 0x00, 0x00, 0x09,
  0x60, 0x00, 0x00, 0x00, 0x04, 0x00, 0x00, 0x00, 0xff, 0xff, 0xff, 0xff,
  0x06, 0x00, 0x00, 0x00, 0x06, 0x00, 0x00, 0x00, 0x08, 0x00, 0x00, 0x00,
  0xcc, 0xfc, 0xff, 0xff, 0x08, 0x00, 0x00, 0x00, 0x14, 0x00, 0x00, 0x00,
  0x01, 0x00, 0x00, 0x00, 0x92, 0xff, 0xff, 0xff, 0xff, 0xff, 0xff, 0xff,
  0x00, 0x00, 0x00, 0x00, 0x01, 0x00, 0x00, 0x00, 0xdc, 0x99, 0x46, 0x3d,
  0x1f, 0x00, 0x00, 0x00, 0x6d, 0x6f, 0x64, 0x65, 0x6c, 0x5f, 0x37, 0x2f,
  0x6d, 0x61, 0x78, 0x5f, 0x70, 0x6f, 0x6f, 0x6c, 0x69, 0x6e, 0x67, 0x32,
  0x64, 0x5f, 0x35, 0x2f, 0x4d, 0x61, 0x78, 0x50, 0x6f, 0x6f, 0x6c, 0x00,
  0x04, 0x00, 0x00, 0x00, 0x01, 0x00, 0x00, 0x00, 0x06, 0x00, 0x00, 0x00,
  0x06, 0x00, 0x00, 0x00, 0x08, 0x00, 0x00, 0x00, 0x00, 0x00, 0x16, 0x00,
  0x20, 0x00, 0x1c, 0x00, 0x1b, 0x00, 0x14, 0x00, 0x10, 0x00, 0x0c, 0x00,
  0x00, 0x00, 0x00, 0x00, 0x08, 0x00, 0x07, 0x00, 0x16, 0x00, 0x00, 0x00,
  0x00, 0x00, 0x00, 0x01, 0x18, 0x00, 0x00, 0x00, 0x28, 0x00, 0x00, 0x00,
  0x48, 0x00, 0x00, 0x00, 0x09, 0x00, 0x00, 0x00, 0x00, 0x00, 0x00, 0x09,
  0x24, 0x01, 0x00, 0x00, 0x04, 0x00, 0x00, 0x00, 0xff, 0xff, 0xff, 0xff,
  0x0d, 0x00, 0x00, 0x00, 0x0d, 0x00, 0x00, 0x00, 0x08, 0x00, 0x00, 0x00,
  0x74, 0xfd, 0xff, 0xff, 0x08, 0x00, 0x00, 0x00, 0x14, 0x00, 0x00, 0x00,
  0x01, 0x00, 0x00, 0x00, 0x92, 0xff, 0xff, 0xff, 0xff, 0xff, 0xff, 0xff,
  0x00, 0x00, 0x00, 0x00, 0x01, 0x00, 0x00, 0x00, 0xdc, 0x99, 0x46, 0x3d,
  0xe2, 0x00, 0x00, 0x00, 0x6d, 0x6f, 0x64, 0x65, 0x6c, 0x5f, 0x37, 0x2f,
  0x71, 0x75, 0x61, 0x6e, 0x74, 0x5f, 0x63, 0x6f, 0x6e, 0x76, 0x32, 0x64,
  0x5f, 0x35, 0x2f, 0x4d, 0x6f, 0x76, 0x69, 0x6e, 0x67, 0x41, 0x76, 0x67,
  0x51, 0x75, 0x61, 0x6e, 0x74, 0x69, 0x7a, 0x65, 0x2f, 0x46, 0x61, 0x6b,
  0x65, 0x51, 0x75, 0x61, 0x6e, 0x74, 0x57, 0x69, 0x74, 0x68, 0x4d, 0x69,
  0x6e, 0x4d, 0x61, 0x78, 0x56, 0x61, 0x72, 0x73, 0x3b, 0x6d, 0x6f, 0x64,
  0x65, 0x6c, 0x5f, 0x37, 0x2f, 0x71, 0x75, 0x61, 0x6e, 0x74, 0x5f, 0x63,
  0x6f, 0x6e, 0x76, 0x32, 0x64, 0x5f, 0x35, 0x2f, 0x4d, 0x6f, 0x76, 0x69,
  0x6e, 0x67, 0x41, 0x76, 0x67, 0x51, 0x75, 0x61, 0x6e, 0x74, 0x69, 0x7a,
  0x65, 0x2f, 0x46, 0x61, 0x6b, 0x65, 0x51, 0x75, 0x61, 0x6e, 0x74, 0x57,
  0x69, 0x74, 0x68, 0x4d, 0x69, 0x6e, 0x4d, 0x61, 0x78, 0x56, 0x61, 0x72,
  0x73, 0x2f, 0x52, 0x65, 0x61, 0x64, 0x56, 0x61, 0x72, 0x69, 0x61, 0x62,
  0x6c, 0x65, 0x4f, 0x70, 0x3b, 0x6d, 0x6f, 0x64, 0x65, 0x6c, 0x5f, 0x37,
  0x2f, 0x71, 0x75, 0x61, 0x6e, 0x74, 0x5f, 0x63, 0x6f, 0x6e, 0x76, 0x32,
  0x64, 0x5f, 0x35, 0x2f, 0x4d, 0x6f, 0x76, 0x69, 0x6e, 0x67, 0x41, 0x76,
  0x67, 0x51, 0x75, 0x61, 0x6e, 0x74, 0x69, 0x7a, 0x65, 0x2f, 0x46, 0x61,
  0x6b, 0x65, 0x51, 0x75, 0x61, 0x6e, 0x74, 0x57, 0x69, 0x74, 0x68, 0x4d,
  0x69, 0x6e, 0x4d, 0x61, 0x78, 0x56, 0x61, 0x72, 0x73, 0x2f, 0x52, 0x65,
  0x61, 0x64, 0x56, 0x61, 0x72, 0x69, 0x61, 0x62, 0x6c, 0x65, 0x4f, 0x70,
  0x5f, 0x31, 0x00, 0x00, 0x04, 0x00, 0x00, 0x00, 0x01, 0x00, 0x00, 0x00,
  0x0d, 0x00, 0x00, 0x00, 0x0d, 0x00, 0x00, 0x00, 0x08, 0x00, 0x00, 0x00,
  0x72, 0xfc, 0xff, 0xff, 0x00, 0x00, 0x00, 0x01, 0x14, 0x00, 0x00, 0x00,
  0x24, 0x00, 0x00, 0x00, 0x24, 0x00, 0x00, 0x00, 0x08, 0x00, 0x00, 0x00,
  0xa8, 0x00, 0x00, 0x00, 0x04, 0x00, 0x00, 0x00, 0xff, 0xff, 0xff, 0xff,
  0x0d, 0x00, 0x00, 0x00, 0x0d, 0x00, 0x00, 0x00, 0x08, 0x00, 0x00, 0x00,
  0x5c, 0xfc, 0xff, 0xff, 0x86, 0x00, 0x00, 0x00, 0x6d, 0x6f, 0x64, 0x65,
  0x6c, 0x5f, 0x37, 0x2f, 0x71, 0x75, 0x61, 0x6e, 0x74, 0x5f, 0x63, 0x6f,
  0x6e, 0x76, 0x32, 0x64, 0x5f, 0x35, 0x2f, 0x52, 0x65, 0x6c, 0x75, 0x3b,
  0x6d, 0x6f, 0x64, 0x65, 0x6c, 0x5f, 0x37, 0x2f, 0x71, 0x75, 0x61, 0x6e,
  0x74, 0x5f, 0x63, 0x6f, 0x6e, 0x76, 0x32, 0x64, 0x5f, 0x35, 0x2f, 0x42,
  0x69, 0x61, 0x73, 0x41, 0x64, 0x64, 0x3b, 0x6d, 0x6f, 0x64, 0x65, 0x6c,
  0x5f, 0x37, 0x2f, 0x71, 0x75, 0x61, 0x6e, 0x74, 0x5f, 0x63, 0x6f, 0x6e,
  0x76, 0x32, 0x64, 0x5f, 0x35, 0x2f, 0x43, 0x6f, 0x6e, 0x76, 0x32, 0x44,
  0x3b, 0x6d, 0x6f, 0x64, 0x65, 0x6c, 0x5f, 0x37, 0x2f, 0x71, 0x75, 0x61,
  0x6e, 0x74, 0x5f, 0x63, 0x6f, 0x6e, 0x76, 0x32, 0x64, 0x5f, 0x35, 0x2f,
  0x42, 0x69, 0x61, 0x73, 0x41, 0x64, 0x64, 0x2f, 0x52, 0x65, 0x61, 0x64,
  0x56, 0x61, 0x72, 0x69, 0x61, 0x62, 0x6c, 0x65, 0x4f, 0x70, 0x00, 0x00,
  0x04, 0x00, 0x00, 0x00, 0x01, 0x00, 0x00, 0x00, 0x0d, 0x00, 0x00, 0x00,
  0x0d, 0x00, 0x00, 0x00, 0x08, 0x00, 0x00, 0x00, 0x46, 0xfd, 0xff, 0xff,
  0x00, 0x00, 0x00, 0x01, 0x14, 0x00, 0x00, 0x00, 0x24, 0x00, 0x00, 0x00,
  0x24, 0x00, 0x00, 0x00, 0x07, 0x00, 0x00, 0x00, 0x50, 0x00, 0x00, 0x00,
  0x04, 0x00, 0x00, 0x00, 0xff, 0xff, 0xff, 0xff, 0x20, 0x00, 0x00, 0x00,
  0x20, 0x00, 0x00, 0x00, 0x01, 0x00, 0x00, 0x00, 0x30, 0xfd, 0xff, 0xff,
  0x2f, 0x00, 0x00, 0x00, 0x6d, 0x6f, 0x64, 0x65, 0x6c, 0x5f, 0x37, 0x2f,
  0x72, 0x65, 0x73, 0x69, 0x7a, 0x69, 0x6e, 0x67, 0x5f, 0x35, 0x2f, 0x72,
  0x65, 0x73, 0x69, 0x7a, 0x65, 0x2f, 0x52, 0x65, 0x73, 0x69, 0x7a, 0x65,
  0x4e, 0x65, 0x61, 0x72, 0x65, 0x73, 0x74, 0x4e, 0x65, 0x69, 0x67, 0x68,
  0x62, 0x6f, 0x72, 0x00, 0x04, 0x00, 0x00, 0x00, 0x01, 0x00, 0x00, 0x00,
  0x20, 0x00, 0x00, 0x00, 0x20, 0x00, 0x00, 0x00, 0x01, 0x00, 0x00, 0x00,
  0xda, 0xfe, 0xff, 0xff, 0x00, 0x00, 0x00, 0x01, 0x20, 0x00, 0x00, 0x00,
  0x40, 0x00, 0x00, 0x00, 0x06, 0x00, 0x00, 0x00, 0x00, 0x00, 0x00, 0x02,
  0x68, 0x00, 0x00, 0x00, 0x0c, 0x00, 0x0c, 0x00, 0x00, 0x00, 0x00, 0x00,
  0x08, 0x00, 0x04, 0x00, 0x0c, 0x00, 0x00, 0x00, 0x08, 0x00, 0x00, 0x00,
  0x14, 0x00, 0x00, 0x00, 0x01, 0x00, 0x00, 0x00, 0x00, 0x00, 0x00, 0x00,
  0x00, 0x00, 0x00, 0x00, 0x00, 0x00, 0x00, 0x00, 0x01, 0x00, 0x00, 0x00,
  0xa5, 0xb6, 0x89, 0x39, 0x2c, 0x00, 0x00, 0x00, 0x6d, 0x6f, 0x64, 0x65,
  0x6c, 0x5f, 0x37, 0x2f, 0x71, 0x75, 0x61, 0x6e, 0x74, 0x5f, 0x64, 0x65,
  0x6e, 0x73, 0x65, 0x5f, 0x39, 0x2f, 0x42, 0x69, 0x61, 0x73, 0x41, 0x64,
  0x64, 0x2f, 0x52, 0x65, 0x61, 0x64, 0x56, 0x61, 0x72, 0x69, 0x61, 0x62,
  0x6c, 0x65, 0x4f, 0x70, 0x00, 0x00, 0x00, 0x00, 0x01, 0x00, 0x00, 0x00,
  0x01, 0x00, 0x00, 0x00, 0xfe, 0xfe, 0xff, 0xff, 0x00, 0x00, 0x00, 0x01,
  0x10, 0x00, 0x00, 0x00, 0x10, 0x00, 0x00, 0x00, 0x05, 0x00, 0x00, 0x00,
  0x3c, 0x00, 0x00, 0x00, 0x1c, 0xfe, 0xff, 0xff, 0x2d, 0x00, 0x00, 0x00,
  0x6d, 0x6f, 0x64, 0x65, 0x6c, 0x5f, 0x37, 0x2f, 0x71, 0x75, 0x61, 0x6e,
  0x74, 0x5f, 0x63, 0x6f, 0x6e, 0x76, 0x32, 0x64, 0x5f, 0x35, 0x2f, 0x42,
  0x69, 0x61, 0x73, 0x41, 0x64, 0x64, 0x2f, 0x52, 0x65, 0x61, 0x64, 0x56,
  0x61, 0x72, 0x69, 0x61, 0x62, 0x6c, 0x65, 0x4f, 0x70, 0x00, 0x00, 0x00,
  0x01, 0x00, 0x00, 0x00, 0x08, 0x00, 0x00, 0x00, 0xba, 0xff, 0xff, 0xff,
  0x00, 0x00, 0x00, 0x01, 0x14, 0x00, 0x00, 0x00, 0x14, 0x00, 0x00, 0x00,
  0x04, 0x00, 0x00, 0x00, 0x00, 0x00, 0x00, 0x02, 0x24, 0x00, 0x00, 0x00,
  0x78, 0xfe, 0xff, 0xff, 0x17, 0x00, 0x00, 0x00, 0x6d, 0x6f, 0x64, 0x65,
  0x6c, 0x5f, 0x37, 0x2f, 0x66, 0x6c, 0x61, 0x74, 0x74, 0x65, 0x6e, 0x5f,
  0x35, 0x2f, 0x43, 0x6f, 0x6e, 0x73, 0x74, 0x00, 0x01, 0x00, 0x00, 0x00,
  0x02, 0x00, 0x00, 0x00, 0x00, 0x00, 0x16, 0x00, 0x1c, 0x00, 0x18, 0x00,
  0x17, 0x00, 0x10, 0x00, 0x0c, 0x00, 0x08, 0x00, 0x00, 0x00, 0x00, 0x00,
  0x00, 0x00, 0x07, 0x00, 0x16, 0x00, 0x00, 0x00, 0x00, 0x00, 0x00, 0x01,
  0x14, 0x00, 0x00, 0x00, 0x14, 0x00, 0x00, 0x00, 0x03, 0x00, 0x00, 0x00,
  0x00, 0x00, 0x00, 0x02, 0x2c, 0x00, 0x00, 0x00, 0xd4, 0xfe, 0xff, 0xff,
  0x1e, 0x00, 0x00, 0x00, 0x6d, 0x6f, 0x64, 0x65, 0x6c, 0x5f, 0x37, 0x2f,
  0x72, 0x65, 0x73, 0x69, 0x7a, 0x69, 0x6e, 0x67, 0x5f, 0x35, 0x2f, 0x72,
  0x65, 0x73, 0x69, 0x7a, 0x65, 0x2f, 0x73, 0x69, 0x7a, 0x65, 0x00, 0x00,
  0x01, 0x00, 0x00, 0x00, 0x02, 0x00, 0x00, 0x00, 0x00, 0x00, 0x16, 0x00,
  0x18, 0x00, 0x14, 0x00, 0x00, 0x00, 0x10, 0x00, 0x0c, 0x00, 0x08, 0x00,
  0x00, 0x00, 0x00, 0x00, 0x00, 0x00, 0x07, 0x00, 0x16, 0x00, 0x00, 0x00,
  0x00, 0x00, 0x00, 0x01, 0x10, 0x00, 0x00, 0x00, 0x10, 0x00, 0x00, 0x00,
  0x02, 0x00, 0x00, 0x00, 0x74, 0x00, 0x00, 0x00, 0x34, 0xff, 0xff, 0xff,
  0x65, 0x00, 0x00, 0x00, 0x6d, 0x6f, 0x64, 0x65, 0x6c, 0x5f, 0x37, 0x2f,
  0x71, 0x75, 0x61, 0x6e, 0x74, 0x5f, 0x63, 0x6f, 0x6e, 0x76, 0x32, 0x64,
  0x5f, 0x35, 0x2f, 0x43, 0x6f, 0x6e, 0x76, 0x32, 0x44, 0x3b, 0x6d, 0x6f,
  0x64, 0x65, 0x6c, 0x5f, 0x37, 0x2f, 0x71, 0x75, 0x61, 0x6e, 0x74, 0x5f,
  0x63, 0x6f, 0x6e, 0x76, 0x32, 0x64, 0x5f, 0x35, 0x2f, 0x4c, 0x61, 0x73,
  0x74, 0x56, 0x61, 0x6c, 0x75, 0x65, 0x51, 0x75, 0x61, 0x6e, 0x74, 0x2f,
  0x46, 0x61, 0x6b, 0x65, 0x51, 0x75, 0x61, 0x6e, 0x74, 0x57, 0x69, 0x74,
  0x68, 0x4d, 0x69, 0x6e, 0x4d, 0x61, 0x78, 0x56, 0x61, 0x72, 0x73, 0x50,
  0x65, 0x72, 0x43, 0x68, 0x61, 0x6e, 0x6e, 0x65, 0x6c, 0x00, 0x00, 0x00,
  0x04, 0x00, 0x00, 0x00, 0x08, 0x00, 0x00, 0x00, 0x08, 0x00, 0x00, 0x00,
  0x08, 0x00, 0x00, 0x00, 0x01, 0x00, 0x00, 0x00, 0x00, 0x00, 0x16, 0x00,
  0x1c, 0x00, 0x18, 0x00, 0x00, 0x00, 0x14, 0x00, 0x10, 0x00, 0x0c, 0x00,
  0x00, 0x00, 0x00, 0x00, 0x08, 0x00, 0x07, 0x00, 0x16, 0x00, 0x00, 0x00,
  0x00, 0x00, 0x00, 0x01, 0x14, 0x00, 0x00, 0x00, 0x28, 0x00, 0x00, 0x00,
  0x28, 0x00, 0x00, 0x00, 0x01, 0x00, 0x00, 0x00, 0x40, 0x00, 0x00, 0x00,
  0x04, 0x00, 0x00, 0x00, 0xff, 0xff, 0xff, 0xff, 0xf9, 0x00, 0x00, 0x00,
  0x01, 0x01, 0x00, 0x00, 0x01, 0x00, 0x00, 0x00, 0x04, 0x00, 0x04, 0x00,
  0x04, 0x00, 0x00, 0x00, 0x19, 0x00, 0x00, 0x00, 0x73, 0x65, 0x72, 0x76,
  0x69, 0x6e, 0x67, 0x5f, 0x64, 0x65, 0x66, 0x61, 0x75, 0x6c, 0x74, 0x5f,
  0x69, 0x6e, 0x70, 0x75, 0x74, 0x5f, 0x36, 0x3a, 0x30, 0x00, 0x00, 0x00,
  0x04, 0x00, 0x00, 0x00, 0x01, 0x00, 0x00, 0x00, 0xf9, 0x00, 0x00, 0x00,
  0x01, 0x01, 0x00, 0x00, 0x01, 0x00, 0x00, 0x00, 0x08, 0x00, 0x00, 0x00,
  0x9c, 0x00, 0x00, 0x00, 0x80, 0x00, 0x00, 0x00, 0x64, 0x00, 0x00, 0x00,
  0x50, 0x00, 0x00, 0x00, 0x40, 0x00, 0x00, 0x00, 0x2c, 0x00, 0x00, 0x00,
  0x18, 0x00, 0x00, 0x00, 0x04, 0x00, 0x00, 0x00, 0x90, 0xff, 0xff, 0xff,
  0x06, 0x00, 0x00, 0x00, 0x02, 0x00, 0x00, 0x00, 0x00, 0x00, 0x00, 0x06,
  0xa0, 0xff, 0xff, 0xff, 0x0e, 0x00, 0x00, 0x00, 0x02, 0x00, 0x00, 0x00,
  0x00, 0x00, 0x00, 0x0e, 0xb0, 0xff, 0xff, 0xff, 0x09, 0x00, 0x00, 0x00,
  0x04, 0x00, 0x00, 0x00, 0x00, 0x00, 0x00, 0x09, 0xd8, 0xff, 0xff, 0xff,
  0x16, 0x00, 0x00, 0x00, 0x00, 0x00, 0x00, 0x16, 0xcc, 0xff, 0xff, 0xff,
  0x11, 0x00, 0x00, 0x00, 0x02, 0x00, 0x00, 0x00, 0x00, 0x00, 0x00, 0x11,
  0xf4, 0xff, 0xff, 0xff, 0x72, 0x00, 0x00, 0x00, 0x00, 0x00, 0x00, 0x72,
  0x0c, 0x00, 0x0c, 0x00, 0x0b, 0x00, 0x00, 0x00, 0x00, 0x00, 0x04, 0x00,
  0x0c, 0x00, 0x00, 0x00, 0x03, 0x00, 0x00, 0x00, 0x00, 0x00, 0x00, 0x03,
  0x0c, 0x00, 0x10, 0x00, 0x0f, 0x00, 0x00, 0x00, 0x08, 0x00, 0x04, 0x00,
  0x0c, 0x00, 0x00, 0x00, 0x61, 0x00, 0x00, 0x00, 0x03, 0x00, 0x00, 0x00,
  0x00, 0x00, 0x00, 0x61
};
