alignas(8) const unsigned char tflite_model[] = {
  0x20, 0x00, 0x00, 0x00, 0x54, 0x46, 0x4c, 0x33, 0x00, 0x00, 0x00, 0x00,
  0x14, 0x00, 0x20, 0x00, 0x1c, 0x00, 0x18, 0x00, 0x14, 0x00, 0x10, 0x00,
  0x0c, 0x00, 0x00, 0x00, 0x08, 0x00, 0x04, 0x00, 0x14, 0x00, 0x00, 0x00,
  0x1c, 0x00, 0x00, 0x00, 0x88, 0x00, 0x00, 0x00, 0xe0, 0x00, 0x00, 0x00,
  0x74, 0x0b, 0x00, 0x00, 0x84, 0x0b, 0x00, 0x00, 0x98, 0x16, 0x00, 0x00,
  0x03, 0x00, 0x00, 0x00, 0x01, 0x00, 0x00, 0x00, 0x04, 0x00, 0x00, 0x00,
  0x46, 0xf3, 0xff, 0xff, 0x0c, 0x00, 0x00, 0x00, 0x1c, 0x00, 0x00, 0x00,
  0x40, 0x00, 0x00, 0x00, 0x0f, 0x00, 0x00, 0x00, 0x73, 0x65, 0x72, 0x76,
  0x69, 0x6e, 0x67, 0x5f, 0x64, 0x65, 0x66, 0x61, 0x75, 0x6c, 0x74, 0x00,
  0x01, 0x00, 0x00, 0x00, 0x04, 0x00, 0x00, 0x00, 0x94, 0xff, 0xff, 0xff,
  0x0e, 0x00, 0x00, 0x00, 0x04, 0x00, 0x00, 0x00, 0x0d, 0x00, 0x00, 0x00,
  0x71, 0x75, 0x61, 0x6e, 0x74, 0x5f, 0x64, 0x65, 0x6e, 0x73, 0x65, 0x5f,
  0x33, 0x00, 0x00, 0x00, 0x01, 0x00, 0x00, 0x00, 0x04, 0x00, 0x00, 0x00,
  0x12, 0xfd, 0xff, 0xff, 0x04, 0x00, 0x00, 0x00, 0x07, 0x00, 0x00, 0x00,
  0x69, 0x6e, 0x70, 0x75, 0x74, 0x5f, 0x33, 0x00, 0x02, 0x00, 0x00, 0x00,
  0x34, 0x00, 0x00, 0x00, 0x04, 0x00, 0x00, 0x00, 0xdc, 0xff, 0xff, 0xff,
  0x11, 0x00, 0x00, 0x00, 0x04, 0x00, 0x00, 0x00, 0x13, 0x00, 0x00, 0x00,
  0x43, 0x4f, 0x4e, 0x56, 0x45, 0x52, 0x53, 0x49, 0x4f, 0x4e, 0x5f, 0x4d,
  0x45, 0x54, 0x41, 0x44, 0x41, 0x54, 0x41, 0x00, 0x08, 0x00, 0x0c, 0x00,
  0x08, 0x00, 0x04, 0x00, 0x08, 0x00, 0x00, 0x00, 0x10, 0x00, 0x00, 0x00,
  0x04, 0x00, 0x00, 0x00, 0x13, 0x00, 0x00, 0x00, 0x6d, 0x69, 0x6e, 0x5f,
  0x72, 0x75, 0x6e, 0x74, 0x69, 0x6d, 0x65, 0x5f, 0x76, 0x65, 0x72, 0x73,
  0x69, 0x6f, 0x6e, 0x00, 0x12, 0x00, 0x00, 0x00, 0x90, 0x0a, 0x00, 0x00,
  0x88, 0x0a, 0x00, 0x00, 0x78, 0x02, 0x00, 0x00, 0x58, 0x02, 0x00, 0x00,
  0x40, 0x02, 0x00, 0x00, 0x10, 0x02, 0x00, 0x00, 0xfc, 0x01, 0x00, 0x00,
  0xf4, 0x01, 0x00, 0x00, 0xec, 0x01, 0x00, 0x00, 0xe4, 0x01, 0x00, 0x00,
  0xdc, 0x01, 0x00, 0x00, 0xd4, 0x01, 0x00, 0x00, 0xa4, 0x00, 0x00, 0x00,
  0x9c, 0x00, 0x00, 0x00, 0x94, 0x00, 0x00, 0x00, 0x8c, 0x00, 0x00, 0x00,
  0x6c, 0x00, 0x00, 0x00, 0x04, 0x00, 0x00, 0x00, 0xce, 0xfd, 0xff, 0xff,
  0x04, 0x00, 0x00, 0x00, 0x58, 0x00, 0x00, 0x00, 0x0c, 0x00, 0x00, 0x00,
  0x08, 0x00, 0x0e, 0x00, 0x08, 0x00, 0x04, 0x00, 0x08, 0x00, 0x00, 0x00,
  0x10, 0x00, 0x00, 0x00, 0x28, 0x00, 0x00, 0x00, 0x00, 0x00, 0x06, 0x00,
  0x08, 0x00, 0x04, 0x00, 0x06, 0x00, 0x00, 0x00, 0x04, 0x00, 0x00, 0x00,
  0x01, 0x00, 0x00, 0x00, 0xd0, 0x07, 0x00, 0x00, 0x00, 0x00, 0x0a, 0x00,
  0x10, 0x00, 0x0c, 0x00, 0x08, 0x00, 0x04, 0x00, 0x0a, 0x00, 0x00, 0x00,
  0x02, 0x00, 0x00, 0x00, 0x02, 0x00, 0x00, 0x00, 0x04, 0x00, 0x00, 0x00,
  0x06, 0x00, 0x00, 0x00, 0x32, 0x2e, 0x31, 0x31, 0x2e, 0x30, 0x00, 0x00,
  0x32, 0xfe, 0xff, 0xff, 0x04, 0x00, 0x00, 0x00, 0x10, 0x00, 0x00, 0x00,
  0x32, 0x2e, 0x33, 0x2e, 0x30, 0x00, 0x00, 0x00, 0x00, 0x00, 0x00, 0x00,
  0x00, 0x00, 0x00, 0x00, 0x44, 0xeb, 0xff, 0xff, 0x48, 0xeb, 0xff, 0xff,
  0x4c, 0xeb, 0xff, 0xff, 0x5a, 0xfe, 0xff, 0xff, 0x04, 0x00, 0x00, 0x00,
  0x20, 0x01, 0x00, 0x00, 0xf0, 0x3a, 0x3c, 0x1d, 0x17, 0xfa, 0xf6, 0x0d,
  0xf3, 0xfc, 0xec, 0xd9, 0xfe, 0x01, 0xc5, 0xcb, 0x04, 0xd8, 0xe0, 0x08,
  0xd6, 0x4e, 0xd1, 0xf1, 0xe9, 0xfd, 0x10, 0xe1, 0xef, 0x01, 0xd2, 0xef,
  0xfd, 0xdd, 0x1d, 0xd3, 0x61, 0x06, 0x0b, 0x31, 0x21, 0x43, 0x34, 0x09,
  0x44, 0x33, 0x27, 0x29, 0xed, 0x24, 0x37, 0xf8, 0x25, 0x16, 0xfb, 0x10,
  0xfa, 0xfd, 0xf5, 0xda, 0xe1, 0x14, 0xd0, 0xea, 0x0e, 0xda, 0x11, 0xb5,
  0x1b, 0x0a, 0xce, 0x20, 0xf4, 0xeb, 0x13, 0xc4, 0x16, 0xfe, 0xc2, 0x02,
  0xee, 0x12, 0x14, 0xbf, 0x26, 0x53, 0x28, 0x13, 0x3b, 0x27, 0x30, 0xed,
  0x7f, 0x66, 0x69, 0x49, 0xf8, 0x1f, 0x13, 0x06, 0x19, 0x1e, 0xee, 0xe5,
  0xf2, 0x11, 0xe8, 0xf2, 0xde, 0x08, 0xbc, 0xf6, 0xce, 0x13, 0x08, 0xc3,
  0x20, 0xf9, 0xcf, 0xda, 0x04, 0xbb, 0xfa, 0xce, 0x00, 0x1a, 0xc9, 0xda,
  0x31, 0xc9, 0x0e, 0xe2, 0x11, 0x5e, 0x0a, 0x02, 0x07, 0xfb, 0x2f, 0xe1,
  0x44, 0x7f, 0x28, 0x0c, 0xee, 0x15, 0x16, 0x24, 0x00, 0x20, 0x0b, 0xe1,
  0xe1, 0x9c, 0xe5, 0x14, 0xfd, 0x21, 0xc6, 0xe6, 0xe0, 0xf9, 0x13, 0xf1,
  0xee, 0xd5, 0xd9, 0xc1, 0x0b, 0xeb, 0x0a, 0xdf, 0x1b, 0x00, 0xd4, 0xdb,
  0x01, 0x34, 0x2e, 0xe0, 0x40, 0x29, 0x30, 0x02, 0x2e, 0x18, 0x17, 0xf3,
  0x5a, 0x4d, 0x22, 0x1d, 0xec, 0x45, 0x24, 0xf8, 0x01, 0x2e, 0xd6, 0xfe,
  0xe0, 0xe8, 0xda, 0xda, 0x04, 0x08, 0xac, 0x03, 0xf5, 0xae, 0xef, 0xe7,
  0xec, 0x07, 0xbc, 0xf2, 0xd6, 0xf6, 0x11, 0xc5, 0x04, 0x06, 0xe1, 0xc2,
  0x2c, 0xfa, 0x35, 0xcf, 0x31, 0x3d, 0x07, 0x0d, 0x28, 0xe3, 0x51, 0xf2,
  0x45, 0x21, 0x39, 0x16, 0xf5, 0x11, 0x0b, 0x0d, 0x0d, 0x04, 0xc8, 0x15,
  0xf8, 0x26, 0xbd, 0x2a, 0xeb, 0xf2, 0xc7, 0x21, 0xf3, 0x22, 0xe0, 0xf2,
  0xfd, 0xf4, 0xc0, 0xfc, 0xd5, 0xf4, 0xfb, 0xfb, 0xf7, 0x27, 0xd5, 0xcb,
  0x03, 0xf7, 0x22, 0xef, 0x3d, 0x2e, 0x1f, 0x28, 0x4e, 0x0c, 0x37, 0xfd,
  0x38, 0x07, 0x1c, 0x3c, 0x7c, 0xec, 0xff, 0xff, 0x80, 0xec, 0xff, 0xff,
  0x84, 0xec, 0xff, 0xff, 0x88, 0xec, 0xff, 0xff, 0x8c, 0xec, 0xff, 0xff,
  0x9a, 0xff, 0xff, 0xff, 0x04, 0x00, 0x00, 0x00, 0x04, 0x00, 0x00, 0x00,
  0x76, 0xfc, 0xff, 0xff, 0xaa, 0xff, 0xff, 0xff, 0x04, 0x00, 0x00, 0x00,
  0x20, 0x00, 0x00, 0x00, 0x37, 0xb9, 0x37, 0x3d, 0xc1, 0xc5, 0x1d, 0x3c,
  0x7c, 0x44, 0xac, 0xbe, 0x77, 0x96, 0x48, 0x3e, 0xc7, 0x84, 0xb8, 0xbe,
  0x0b, 0x9e, 0xa1, 0xbe, 0x74, 0xdd, 0xac, 0x3a, 0x4d, 0xc3, 0xbf, 0x3c,
  0xd6, 0xff, 0xff, 0xff, 0x04, 0x00, 0x00, 0x00, 0x08, 0x00, 0x00, 0x00,
  0xff, 0xff, 0xff, 0xff, 0x20, 0x01, 0x00, 0x00, 0xea, 0xff, 0xff, 0xff,
  0x04, 0x00, 0x00, 0x00, 0x08, 0x00, 0x00, 0x00, 0x20, 0x00, 0x00, 0x00,
  0x20, 0x00, 0x00, 0x00, 0x00, 0x00, 0x06, 0x00, 0x08, 0x00, 0x04, 0x00,
  0x06, 0x00, 0x00, 0x00, 0x04, 0x00, 0x00, 0x00, 0x00, 0x08, 0x00, 0x00,
  0x96, 0x80, 0x1d, 0xbe, 0x1f, 0x76, 0xee, 0x3d, 0x49, 0x4d, 0xc2, 0x3d,
  0xdb, 0x88, 0x01, 0x3d, 0xb2, 0xb1, 0xad, 0x3d, 0xaf, 0x01, 0x03, 0xbe,
  0x38, 0xf7, 0xd3, 0xbd, 0xba, 0xdc, 0xa4, 0xbc, 0x27, 0xa1, 0x65, 0xbd,
  0x90, 0x05, 0xd1, 0x3d, 0xd3, 0x5d, 0x8a, 0x3d, 0xba, 0xdc, 0x24, 0x3c,
  0x99, 0x30, 0x48, 0xbd, 0xcb, 0x32, 0x13, 0xbd, 0x1a, 0x16, 0x19, 0x3d,
  0xba, 0xdc, 0x24, 0xbc, 0x38, 0xf7, 0x53, 0x3d, 0x23, 0x41, 0x90, 0x3d,
  0x7b, 0x4f, 0x8d, 0x3c, 0x38, 0xf7, 0xd3, 0xbc, 0xf9, 0x69, 0xbc, 0x3d,
  0x01, 0x95, 0xb3, 0xbd, 0x27, 0xa1, 0x65, 0xbd, 0xd8, 0xbd, 0xdf, 0xbc,
  0xdb, 0x88, 0x01, 0xbd, 0x77, 0x84, 0x6b, 0xbd, 0xf9, 0x69, 0xbc, 0xba,
  0x27, 0xa1, 0x65, 0xbd, 0x17, 0x4b, 0xf7, 0xbc, 0x83, 0x7a, 0x04, 0xbe,
  0x0a, 0xc0, 0x2a, 0xbd, 0xcb, 0x32, 0x13, 0x3d, 0xdb, 0x88, 0x01, 0xbe,
  0xd8, 0xbd, 0xdf, 0x3c, 0x59, 0xa3, 0xb0, 0x3d, 0xd8, 0xbd, 0x5f, 0xbd,
  0x0a, 0xc0, 0xaa, 0xbd, 0x59, 0xa3, 0x30, 0x3d, 0x77, 0x84, 0xeb, 0xbb,
  0xcf, 0x92, 0xe8, 0xbd, 0x2b, 0x6c, 0x87, 0xbd, 0x01, 0x95, 0xb3, 0x3d,
  0xee, 0x8e, 0x1a, 0x3e, 0x38, 0xf7, 0xd3, 0x3d, 0xcb, 0x32, 0x13, 0xbd,
  0xc2, 0x07, 0x1c, 0xbe, 0x1f, 0x76, 0xee, 0x3d, 0xd8, 0xbd, 0xdf, 0xbc,
  0x99, 0x30, 0x48, 0xbd, 0x1a, 0x16, 0x19, 0x3d, 0x0a, 0xc0, 0x2a, 0x3d,
  0x4f, 0xc8, 0x0e, 0x3e, 0x17, 0x4b, 0xf7, 0xbc, 0x49, 0x4d, 0xc2, 0xbd,
  0x40, 0x22, 0xcb, 0xbd, 0x0a, 0xc0, 0x2a, 0x3d, 0x1a, 0x16, 0x99, 0xbc,
  0xf9, 0x69, 0x3c, 0xbc, 0x7b, 0x4f, 0x0d, 0x3c, 0x25, 0xf1, 0x3a, 0x3e,
  0x59, 0xa3, 0xb0, 0xbc, 0xa9, 0x86, 0x36, 0xbd, 0x49, 0x4d, 0xc2, 0x3d,
  0x90, 0x05, 0xd1, 0xbd, 0x2a, 0xf1, 0x10, 0xbe, 0xd3, 0x42, 0xa5, 0xbd,
  0x20, 0xaa, 0xfe, 0x3d, 0x5c, 0xbc, 0x58, 0x3d, 0xf1, 0x4b, 0x12, 0x3d,
  0x0d, 0xb7, 0x97, 0xbc, 0x7d, 0x63, 0xad, 0xbc, 0x46, 0x5c, 0x16, 0x3e,
  0x61, 0xf8, 0xa7, 0x3d, 0xd6, 0xe0, 0x8c, 0xbc, 0xb5, 0x39, 0xb8, 0x3d,
  0x96, 0x30, 0xcb, 0xbd, 0x7e, 0x32, 0x21, 0xbe, 0x20, 0xaa, 0x7e, 0xbd,
  0xd1, 0xa4, 0x3d, 0x3d, 0xcc, 0x68, 0x6e, 0x3c, 0x45, 0x8d, 0xa2, 0x3c,
  0x45, 0x8d, 0xa2, 0x3c, 0xf1, 0x4b, 0x92, 0xbd, 0x9e, 0x0a, 0x82, 0x3b,
  0x9e, 0x0a, 0x82, 0x3c, 0x06, 0xdd, 0xe0, 0x3d, 0xb0, 0xfd, 0x68, 0xbd,
  0xe8, 0xd3, 0xf3, 0xbd, 0x5c, 0xbc, 0x58, 0x3d, 0xd6, 0xe0, 0x8c, 0x3c,
  0x62, 0xc7, 0x1b, 0xbe, 0x78, 0x27, 0x5e, 0x3d, 0xed, 0x0f, 0x43, 0x3c,
  0x96, 0x30, 0xcb, 0x3d, 0xcc, 0x68, 0x6e, 0x3c, 0x7f, 0x01, 0x95, 0xbd,
  0x7d, 0x63, 0xad, 0x3a, 0xb0, 0xfd, 0xe8, 0xbd, 0xb5, 0x39, 0xb8, 0xbd,
  0x0d, 0xb7, 0x97, 0xbd, 0x5c, 0xbc, 0xd8, 0x3c, 0xba, 0x75, 0x07, 0x3d,
  0x5c, 0xbc, 0x58, 0x3c, 0xb6, 0x08, 0x2c, 0x3e, 0x99, 0xce, 0xb2, 0xbd,
  0x40, 0x51, 0x53, 0xbd, 0xb0, 0xfd, 0xe8, 0x3d, 0xf3, 0x1a, 0x06, 0xbe,
  0x99, 0xce, 0x32, 0xbd, 0xf1, 0x4b, 0x92, 0xbd, 0xba, 0x75, 0x07, 0xbd,
  0x5f, 0x5a, 0xc0, 0x3d, 0x0b, 0x19, 0xb0, 0x3d, 0x0d, 0xb7, 0x97, 0xbd,
  0x9e, 0x0a, 0x82, 0x3d, 0xed, 0x0f, 0xc3, 0x3c, 0xb0, 0xfd, 0x68, 0x3d,
  0xb0, 0xfd, 0x68, 0xbd, 0xb0, 0xfd, 0xe8, 0xbd, 0x94, 0x92, 0x63, 0xbd,
  0x7d, 0x63, 0x2d, 0xbc, 0x04, 0x3f, 0xf9, 0x3c, 0xb5, 0x39, 0x38, 0xbd,
  0xcc, 0x68, 0xee, 0xbd, 0xb5, 0x39, 0xb8, 0x3c, 0x9e, 0x0a, 0x02, 0xbe,
  0x45, 0x8d, 0xa2, 0xbc, 0xb2, 0x9b, 0xd0, 0x3d, 0x24, 0x1e, 0xa0, 0x3d,
  0x42, 0x2a, 0x7b, 0xbc, 0x3c, 0x18, 0x36, 0xbd, 0x10, 0x36, 0x4f, 0x3d,
  0xf4, 0xb2, 0x96, 0xbd, 0xf4, 0xb2, 0x96, 0x3b, 0xe1, 0xca, 0xc5, 0x3d,
  0x53, 0x89, 0x29, 0x3d, 0x8c, 0x68, 0x1b, 0x3e, 0x58, 0x9b, 0xee, 0xbc,
  0x82, 0xf4, 0xb2, 0xbd, 0x58, 0x9b, 0x6e, 0x3d, 0x42, 0x2a, 0x7b, 0x3c,
  0x9b, 0xee, 0xc8, 0xba, 0x85, 0x7d, 0x55, 0x3d, 0xe1, 0xca, 0xc5, 0x3d,
  0x69, 0xfa, 0x9c, 0x3d, 0x69, 0xfa, 0x9c, 0xbd, 0x50, 0x00, 0x87, 0xbd,
  0x26, 0xa7, 0xc2, 0x3d, 0x58, 0x9b, 0xee, 0xbc, 0xcd, 0xe2, 0x74, 0x3d,
  0x24, 0x1e, 0xa0, 0xbd, 0xf4, 0xb2, 0x96, 0x3d, 0x9b, 0xee, 0xc8, 0xbc,
  0x82, 0xf4, 0xb2, 0x3d, 0x96, 0xdc, 0x83, 0xbd, 0x6e, 0x0c, 0x62, 0x3d,
  0x69, 0xfa, 0x1c, 0xbe, 0xfa, 0xc4, 0x5b, 0x3d, 0x7f, 0x6b, 0x10, 0xbd,
  0xf4, 0xb2, 0x96, 0xbc, 0x6c, 0x83, 0xbf, 0xbd, 0x55, 0x12, 0xcc, 0xbd,
  0x69, 0xfa, 0x1c, 0x3e, 0x00, 0x00, 0x00, 0x00, 0x42, 0x2a, 0xfb, 0x3c,
  0xdb, 0xb8, 0x80, 0xbd, 0x9b, 0xee, 0x48, 0x3b, 0x10, 0x36, 0x4f, 0x3d,
  0x12, 0xbf, 0xf1, 0xbd, 0xc8, 0xd0, 0x2f, 0x3c, 0xb1, 0x5f, 0xbc, 0x3c,
  0x69, 0xfa, 0x1c, 0xbd, 0x3a, 0x8f, 0x93, 0xbd, 0xf4, 0xb2, 0x96, 0xbc,
  0x9b, 0xee, 0x48, 0x3c, 0xcd, 0xe2, 0xf4, 0x3d, 0x6e, 0x0c, 0x62, 0xbc,
  0x58, 0x9b, 0x6e, 0xbd, 0xf4, 0xb2, 0x16, 0xbd, 0xf4, 0xb2, 0x16, 0xbc,
  0x0b, 0x24, 0x8a, 0xbd, 0x69, 0xfa, 0x9c, 0xbd, 0x9b, 0xee, 0xc8, 0xbd,
  0x6c, 0x83, 0xbf, 0x3d, 0x6e, 0x0c, 0xe2, 0xbc, 0xbe, 0x5c, 0x47, 0xbe,
  0x42, 0x2a, 0xfb, 0x3b, 0x42, 0x2a, 0xfb, 0x3b, 0x87, 0x06, 0xf8, 0xbd,
  0xca, 0x59, 0xd2, 0xbd, 0x7f, 0x6b, 0x10, 0xbd, 0x42, 0x2a, 0xfb, 0x3b,
  0x16, 0x93, 0x24, 0xbe, 0x8c, 0xa1, 0x82, 0xbe, 0xe4, 0x49, 0x1a, 0x3e,
  0x56, 0x0f, 0x12, 0x3e, 0x88, 0x58, 0x1c, 0x3d, 0x59, 0xbf, 0xf2, 0xbd,
  0xf7, 0x2c, 0x5e, 0x3d, 0x4d, 0x7d, 0xc5, 0xbd, 0xcb, 0x84, 0x6a, 0xbe,
  0x4d, 0x7d, 0xc5, 0xbb, 0xfa, 0x1d, 0x14, 0x3d, 0xa3, 0xcd, 0x2c, 0x3d,
  0x53, 0x1e, 0x5c, 0xbe, 0x94, 0x9a, 0xc9, 0x3d, 0x47, 0xdc, 0x2e, 0xbe,
  0xc8, 0xd4, 0x09, 0xbe, 0x69, 0xf2, 0xd5, 0xbc, 0x41, 0x3b, 0x98, 0xbd,
  0x84, 0x67, 0x66, 0xbc, 0xdb, 0xb7, 0x4d, 0xbd, 0xdb, 0xb7, 0xcd, 0xbd,
  0x6c, 0xe3, 0x8b, 0x3d, 0x69, 0xf2, 0xd5, 0x3d, 0x2e, 0x17, 0xff, 0x3d,
  0x88, 0x58, 0x9c, 0x3d, 0x4d, 0x7d, 0x45, 0x3c, 0x16, 0x93, 0x24, 0x3c,
  0xcf, 0x75, 0xa0, 0xbd, 0xfa, 0x1d, 0x94, 0x3c, 0x25, 0xc6, 0x87, 0x3d,
  0xdb, 0xb7, 0xcd, 0x3d, 0x4d, 0x7d, 0xc5, 0xbc, 0xc5, 0xe3, 0x53, 0x3e,
  0x41, 0x3b, 0x98, 0x3d, 0x16, 0x93, 0x24, 0x3c, 0xde, 0xa8, 0x83, 0x3d,
  0x5c, 0xb0, 0xa8, 0xbd, 0x84, 0x67, 0x66, 0xbd, 0xde, 0xa8, 0x03, 0xbd,
  0x31, 0x08, 0x35, 0xbd, 0xde, 0xa8, 0x83, 0x3d, 0xfa, 0x1d, 0x94, 0xbc,
  0xde, 0xa8, 0x03, 0xbd, 0xcb, 0x84, 0x6a, 0xbe, 0xde, 0xa8, 0x03, 0xbc,
  0xde, 0xa8, 0x03, 0xbd, 0xde, 0xa8, 0x03, 0x3c, 0xfa, 0x1d, 0x14, 0xbe,
  0x4d, 0x7d, 0x45, 0x3d, 0x6c, 0xe3, 0x0b, 0x3d, 0xde, 0xa8, 0x03, 0xbb,
  0x81, 0xb7, 0x05, 0xbe, 0x4d, 0x7d, 0xc5, 0xbc, 0x4d, 0x7d, 0x45, 0x3d,
  0xa3, 0xcd, 0x2c, 0xbd, 0xf7, 0x2c, 0x5e, 0xbd, 0xa3, 0xcd, 0x2c, 0x3d,
  0x4d, 0x7d, 0x45, 0x3c, 0x78, 0x25, 0xb9, 0x3d, 0xbf, 0x42, 0x3d, 0xbd,
  0x6c, 0xe3, 0x0b, 0xbd, 0x4d, 0x7d, 0x45, 0x3d, 0xde, 0xa8, 0x83, 0x3c,
  0xde, 0xa8, 0x83, 0xbd, 0x9b, 0x13, 0x42, 0x3e, 0x1d, 0xb4, 0x92, 0xbb,
  0x7e, 0xd4, 0x4f, 0x3d, 0x13, 0xc6, 0xcc, 0xbd, 0x1d, 0xb4, 0x92, 0xbb,
  0x0c, 0x19, 0xa8, 0x3d, 0xa8, 0xb7, 0x49, 0x3d, 0xfa, 0x7d, 0xbd, 0xbd,
  0xdb, 0x88, 0x89, 0x3d, 0x70, 0x7a, 0x86, 0xbc, 0x70, 0x7a, 0x86, 0xbc,
  0x70, 0x7a, 0x06, 0x3d, 0x2b, 0x0e, 0xdc, 0x3c, 0x66, 0x8c, 0xc0, 0x3d,
  0x5c, 0x9e, 0x7a, 0x3d, 0x2b, 0x0e, 0xdc, 0x3d, 0x99, 0x5d, 0x00, 0x3d,
  0x7e, 0xd4, 0xcf, 0x3c, 0xca, 0xed, 0x1e, 0xbe, 0x2b, 0x0e, 0x5c, 0xbc,
  0x70, 0x7a, 0x86, 0xbc, 0x24, 0x61, 0xb7, 0xbc, 0x77, 0x27, 0xab, 0xbc,
  0xd1, 0x9a, 0xc3, 0xba, 0xf3, 0xd0, 0x98, 0xbd, 0x3c, 0xa9, 0xc6, 0x3d,
  0xd8, 0x47, 0xe8, 0xbc, 0x85, 0x81, 0x74, 0xbd, 0x2b, 0x0e, 0xdc, 0x3d,
  0x88, 0xc2, 0x95, 0x3d, 0x5f, 0xdf, 0x9b, 0xbd, 0xa0, 0x0a, 0xa5, 0xbd,
  0xcf, 0xe4, 0x01, 0xbe, 0x77, 0x27, 0x2b, 0x3d, 0x7e, 0xd4, 0xcf, 0x3c,
  0x70, 0x7a, 0x86, 0xbc, 0x13, 0xc6, 0xcc, 0x3d, 0x35, 0xfc, 0xa1, 0x3d,
  0x4d, 0x44, 0xb1, 0x3d, 0x7e, 0xd4, 0xcf, 0xbc, 0x0c, 0x19, 0xa8, 0xbd,
  0x5c, 0x9e, 0xfa, 0xbd, 0xd1, 0x9a, 0x43, 0xbb, 0x77, 0x27, 0x2b, 0x3c,
  0x7e, 0xd4, 0x4f, 0x3d, 0x2b, 0x0e, 0xdc, 0x3c, 0xa0, 0x0a, 0xa5, 0x3d,
  0xd1, 0x9a, 0x43, 0x3d, 0xf3, 0xd0, 0x18, 0xbd, 0xd1, 0x9a, 0xc3, 0x3c,
  0x1d, 0xb4, 0x92, 0x3b, 0x1d, 0xb4, 0x92, 0xbb, 0x0c, 0x19, 0xa8, 0xbd,
  0xd1, 0x9a, 0x43, 0xbb, 0xd1, 0x9a, 0x43, 0x3d, 0x02, 0x2b, 0xe2, 0xbd,
  0x2b, 0x0e, 0x5c, 0xbc, 0xcf, 0xe4, 0x01, 0xbe, 0x6d, 0x39, 0xe5, 0xbd,
  0xf3, 0xd0, 0x98, 0xbd, 0x77, 0x27, 0xab, 0x3c, 0x7e, 0xd4, 0xcf, 0xbd,
  0xa8, 0xb7, 0x49, 0xbd, 0x4d, 0x44, 0xb1, 0xbd, 0x11, 0xe7, 0x8f, 0xbd,
  0xd9, 0xc7, 0x94, 0xbd, 0x05, 0x19, 0x1c, 0xbd, 0x9f, 0xc1, 0x51, 0xbd,
  0x9f, 0xc1, 0x51, 0xbd, 0xd9, 0xc7, 0x14, 0xbe, 0xd3, 0xe0, 0x1a, 0xbe,
  0x95, 0xda, 0x25, 0xbd, 0x50, 0x06, 0x6f, 0x3d, 0xd7, 0xe0, 0x4c, 0xbd,
  0xd7, 0xe0, 0xcc, 0xbc, 0x88, 0x25, 0xea, 0xbc, 0x18, 0xe7, 0xf3, 0x3c,
  0x31, 0x6a, 0xa3, 0xbd, 0xee, 0x7c, 0x34, 0xbd, 0xa8, 0xa8, 0x7d, 0xbc,
  0xa8, 0xa8, 0x7d, 0xbc, 0x67, 0xa2, 0x56, 0xbc, 0x95, 0xda, 0x25, 0xbd,
  0x3d, 0x38, 0x17, 0xbd, 0x86, 0x0c, 0x00, 0x3e, 0xa8, 0xa8, 0x7d, 0x3c,
  0x26, 0x9c, 0x2f, 0x3d, 0xe4, 0x95, 0x88, 0x3d, 0x05, 0x19, 0x9c, 0xbb,
  0x50, 0x06, 0xef, 0xbd, 0xf7, 0x63, 0xe0, 0x3c, 0x05, 0x19, 0x9c, 0x3a,
  0x05, 0x19, 0x9c, 0xba, 0x50, 0x06, 0x6f, 0xbd, 0xa8, 0xa8, 0xfd, 0x3c,
  0x69, 0x89, 0x9e, 0x3d, 0x05, 0x19, 0x9c, 0x3a, 0x2f, 0x83, 0x5b, 0xbd,
  0x69, 0x89, 0x9e, 0x3d, 0x88, 0x25, 0xea, 0x3b, 0xa7, 0x8f, 0x13, 0x3e,
  0x88, 0x25, 0xea, 0x3b, 0x18, 0xe7, 0xf3, 0xbc, 0x05, 0x19, 0x1c, 0xbd,
  0xbf, 0x44, 0xe5, 0xbd, 0xf7, 0x63, 0xe0, 0xbc, 0xb6, 0x5d, 0xb9, 0x3d,
  0x7e, 0x3e, 0x3e, 0xbd, 0x05, 0x19, 0x9c, 0x3a, 0xe4, 0x95, 0x08, 0x3d,
  0xee, 0x7c, 0x34, 0xbd, 0x67, 0xa2, 0xd6, 0x3d, 0x88, 0x25, 0x6a, 0xbb,
  0x46, 0x1f, 0xc3, 0x3c, 0xa8, 0xa8, 0x7d, 0xbc, 0x05, 0x19, 0x9c, 0xbd,
  0x5d, 0xbb, 0xaa, 0x3d, 0xe4, 0x95, 0x08, 0xbc, 0xcd, 0xf9, 0x20, 0xbd,
  0xbf, 0x44, 0xe5, 0x3d, 0x3b, 0x51, 0xcf, 0x3d, 0x88, 0x25, 0x6a, 0xbc,
  0x26, 0x9c, 0x2f, 0x3c, 0x80, 0x25, 0x86, 0x3d, 0xb6, 0x5d, 0xb9, 0x3c,
  0x7c, 0x57, 0xf6, 0x3d, 0x05, 0x19, 0x1c, 0xbb, 0x31, 0x6a, 0xa3, 0xbd,
  0x11, 0x46, 0xc3, 0xbd, 0x9c, 0x76, 0x2f, 0x3d, 0xf2, 0x41, 0x09, 0xbe,
  0x07, 0x41, 0xd4, 0xbd, 0x99, 0x1f, 0xb5, 0xbb, 0x2e, 0x55, 0x90, 0x3d,
  0x6f, 0xb4, 0x7e, 0x3d, 0xa6, 0x7b, 0x1e, 0xbe, 0x7f, 0x67, 0x62, 0xbc,
  0x2e, 0x55, 0x90, 0xbd, 0x2b, 0xfe, 0x95, 0xbd, 0x72, 0x0b, 0xf9, 0xbc,
  0x1e, 0xa2, 0xac, 0x3d, 0x00, 0x00, 0x00, 0x00, 0x0e, 0xef, 0xc8, 0xbd,
  0x86, 0x15, 0x57, 0xbd, 0xac, 0x29, 0x93, 0x3d, 0x72, 0x0b, 0x79, 0x3c,
  0x82, 0xbe, 0xdc, 0x3d, 0x99, 0x1f, 0xb5, 0xbd, 0x74, 0x6d, 0x06, 0x3e,
  0x04, 0xea, 0xd9, 0x3d, 0x72, 0x0b, 0xf9, 0x3d, 0xa6, 0x7b, 0x1e, 0x3d,
  0x82, 0xbe, 0xdc, 0xbd, 0x74, 0x6d, 0x06, 0xbe, 0x9f, 0xcd, 0x29, 0xbe,
  0x99, 0x1f, 0xb5, 0x3c, 0x72, 0x0b, 0xf9, 0x3d, 0xf4, 0x36, 0xf6, 0xbd,
  0x2b, 0xfe, 0x15, 0x3e, 0x9c, 0x76, 0x2f, 0xbd, 0x0b, 0x98, 0xce, 0xbd,
  0x99, 0x1f, 0x35, 0xbd, 0x7c, 0x10, 0x68, 0xbd, 0xa9, 0xd2, 0x98, 0xbd,
  0x82, 0xbe, 0x5c, 0x3d, 0x7f, 0x67, 0x62, 0x3c, 0x7f, 0x67, 0x62, 0x3c,
  0x7f, 0x67, 0xe2, 0xbd, 0x6f, 0xb4, 0x7e, 0x3d, 0x8c, 0xc3, 0x4b, 0xbc,
  0x99, 0x1f, 0xb5, 0x3b, 0xb3, 0xd7, 0x87, 0x3d, 0x5a, 0xb5, 0x33, 0x3e,
  0x2b, 0xfe, 0x95, 0xbd, 0x7f, 0x67, 0xe2, 0x3d, 0x72, 0x0b, 0xf9, 0xbc,
  0x00, 0x00, 0x00, 0x00, 0x82, 0xbe, 0xdc, 0xbd, 0xec, 0x93, 0x14, 0xbe,
  0x7c, 0x10, 0xe8, 0xbd, 0xa6, 0x7b, 0x1e, 0x3c, 0xa9, 0xd2, 0x18, 0x3d,
  0x99, 0x1f, 0xb5, 0xba, 0xb3, 0xd7, 0x87, 0xbb, 0x7c, 0x10, 0x68, 0x3d,
  0xb3, 0xd7, 0x07, 0xbd, 0x89, 0x6c, 0x51, 0xbd, 0xac, 0x29, 0x93, 0xbc,
  0x00, 0x00, 0x00, 0x00, 0x8c, 0xc3, 0x4b, 0x3d, 0xa6, 0x7b, 0x9e, 0xbd,
  0x9f, 0xcd, 0xa9, 0xbd, 0xa7, 0xb6, 0x16, 0x3e, 0xc1, 0x12, 0x34, 0xbd,
  0x0c, 0xe7, 0x3b, 0x3c, 0xa3, 0x8f, 0xcb, 0xbc, 0x14, 0x4e, 0x57, 0xbe,
  0x66, 0x89, 0x7a, 0xbb, 0xc1, 0x12, 0x34, 0xbe, 0xaa, 0xf6, 0xe6, 0xbd,
  0xee, 0x63, 0x53, 0xbd, 0x49, 0xed, 0x8c, 0x3c, 0x76, 0x3e, 0xac, 0xbd,
  0x0c, 0xe7, 0x3b, 0x3d, 0x95, 0xc1, 0x94, 0xbd, 0x66, 0x89, 0xfa, 0xbc,
  0x66, 0x89, 0x7a, 0x3b, 0x32, 0xd1, 0x3f, 0xbe, 0xe0, 0x95, 0x1c, 0xbc,
  0x37, 0xf8, 0x0a, 0x3e, 0x39, 0x38, 0xdb, 0x3c, 0xc1, 0x12, 0x34, 0x3d,
  0xaa, 0xf6, 0xe6, 0xbd, 0x39, 0x38, 0xdb, 0x3c, 0xba, 0xab, 0x98, 0xbd,
  0x49, 0xed, 0x8c, 0xbc, 0x2b, 0x6a, 0x24, 0x3d, 0xe0, 0x95, 0x9c, 0x3d,
  0xee, 0x63, 0xd3, 0x3d, 0x32, 0xd1, 0xbf, 0xbd, 0xee, 0x63, 0x53, 0xbd,
  0xee, 0x63, 0xd3, 0x3d, 0x24, 0x03, 0x09, 0xbe, 0xd4, 0x07, 0x36, 0xbe,
  0x49, 0xed, 0x0c, 0x3d, 0x32, 0xd1, 0xbf, 0x3d, 0xee, 0x63, 0x53, 0xbd,
  0xd0, 0xe0, 0xea, 0xbd, 0xa3, 0x8f, 0xcb, 0xbc, 0xd0, 0xe0, 0xea, 0xbc,
  0xe0, 0x95, 0x9c, 0xbc, 0xd0, 0xe0, 0x6a, 0x3d, 0xc1, 0x12, 0x34, 0x3d,
  0x66, 0x89, 0xfa, 0x3c, 0xaf, 0x1d, 0x32, 0xbe, 0x0c, 0xe7, 0xbb, 0xbc,
  0xfe, 0x18, 0x05, 0x3d, 0xe7, 0xfc, 0xb7, 0x3d, 0x66, 0x89, 0x7a, 0x3d,
  0x0c, 0xe7, 0x3b, 0x3d, 0x24, 0x03, 0x09, 0xbe, 0xfe, 0x18, 0x05, 0x3d,
  0x51, 0x54, 0xa8, 0xbd, 0x39, 0x38, 0xdb, 0x3c, 0x53, 0x94, 0x78, 0x3e,
  0xe0, 0x95, 0x1c, 0x3c, 0xd0, 0xe0, 0xea, 0x3d, 0xee, 0x63, 0x53, 0xbd,
  0xfe, 0x18, 0x05, 0x3d, 0x84, 0x0c, 0xe3, 0xbd, 0x49, 0xed, 0x0c, 0xbe,
  0x1b, 0xb5, 0x72, 0x3d, 0x45, 0xc6, 0x41, 0x3e, 0xe0, 0x95, 0x9c, 0x3d,
  0x95, 0xc1, 0x14, 0xbd, 0xa3, 0x8f, 0xcb, 0x3c, 0x08, 0xf5, 0xff, 0xff,
  0x0c, 0xf5, 0xff, 0xff, 0x0f, 0x00, 0x00, 0x00, 0x4d, 0x4c, 0x49, 0x52,
  0x20, 0x43, 0x6f, 0x6e, 0x76, 0x65, 0x72, 0x74, 0x65, 0x64, 0x2e, 0x00,
  0x01, 0x00, 0x00, 0x00, 0x14, 0x00, 0x00, 0x00, 0x00, 0x00, 0x0e, 0x00,
  0x18, 0x00, 0x14, 0x00, 0x10, 0x00, 0x0c, 0x00, 0x08, 0x00, 0x04, 0x00,
  0x0e, 0x00, 0x00, 0x00, 0x14, 0x00, 0x00, 0x00, 0x1c, 0x00, 0x00, 0x00,
  0xf8, 0x01, 0x00, 0x00, 0xfc, 0x01, 0x00, 0x00, 0x00, 0x02, 0x00, 0x00,
  0x04, 0x00, 0x00, 0x00, 0x6d, 0x61, 0x69, 0x6e, 0x00, 0x00, 0x00, 0x00,
  0x08, 0x00, 0x00, 0x00, 0xa4, 0x01, 0x00, 0x00, 0x40, 0x01, 0x00, 0x00,
  0x0c, 0x01, 0x00, 0x00, 0xac, 0x00, 0x00, 0x00, 0x84, 0x00, 0x00, 0x00,
  0x4c, 0x00, 0x00, 0x00, 0x28, 0x00, 0x00, 0x00, 0x04, 0x00, 0x00, 0x00,
  0x16, 0xff, 0xff, 0xff, 0x0c, 0x00, 0x00, 0x00, 0x10, 0x00, 0x00, 0x00,
  0x07, 0x00, 0x00, 0x00, 0x01, 0x00, 0x00, 0x00, 0x0e, 0x00, 0x00, 0x00,
  0x01, 0x00, 0x00, 0x00, 0x0d, 0x00, 0x00, 0x00, 0x36, 0xff, 0xff, 0xff,
  0x0c, 0x00, 0x00, 0x00, 0x10, 0x00, 0x00, 0x00, 0x06, 0x00, 0x00, 0x00,
  0x01, 0x00, 0x00, 0x00, 0x0d, 0x00, 0x00, 0x00, 0x01, 0x00, 0x00, 0x00,
  0x0c, 0x00, 0x00, 0x00, 0x2a, 0xff, 0xff, 0xff, 0x14, 0x00, 0x00, 0x00,
  0x00, 0x00, 0x00, 0x08, 0x10, 0x00, 0x00, 0x00, 0x14, 0x00, 0x00, 0x00,
  0x05, 0x00, 0x00, 0x00, 0xdc, 0xf5, 0xff, 0xff, 0x01, 0x00, 0x00, 0x00,
  0x0c, 0x00, 0x00, 0x00, 0x03, 0x00, 0x00, 0x00, 0x0a, 0x00, 0x00, 0x00,
  0x0b, 0x00, 0x00, 0x00, 0x05, 0x00, 0x00, 0x00, 0x8a, 0xff, 0xff, 0xff,
  0x0c, 0x00, 0x00, 0x00, 0x10, 0x00, 0x00, 0x00, 0x04, 0x00, 0x00, 0x00,
  0x01, 0x00, 0x00, 0x00, 0x0a, 0x00, 0x00, 0x00, 0x02, 0x00, 0x00, 0x00,
  0x09, 0x00, 0x00, 0x00, 0x03, 0x00, 0x00, 0x00, 0x82, 0xff, 0xff, 0xff,
  0x24, 0x00, 0x00, 0x00, 0x00, 0x00, 0x00, 0x05, 0x34, 0x00, 0x00, 0x00,
  0x38, 0x00, 0x00, 0x00, 0x03, 0x00, 0x00, 0x00, 0x00, 0x00, 0x0e, 0x00,
  0x18, 0x00, 0x17, 0x00, 0x10, 0x00, 0x0c, 0x00, 0x08, 0x00, 0x04, 0x00,
  0x0e, 0x00, 0x00, 0x00, 0x02, 0x00, 0x00, 0x00, 0x02, 0x00, 0x00, 0x00,
  0x02, 0x00, 0x00, 0x00, 0x02, 0x00, 0x00, 0x00, 0x00, 0x00, 0x00, 0x01,
  0x01, 0x00, 0x00, 0x00, 0x09, 0x00, 0x00, 0x00, 0x01, 0x00, 0x00, 0x00,
  0x08, 0x00, 0x00, 0x00, 0x00, 0x00, 0x0a, 0x00, 0x10, 0x00, 0x0c, 0x00,
  0x08, 0x00, 0x04, 0x00, 0x0a, 0x00, 0x00, 0x00, 0x0c, 0x00, 0x00, 0x00,
  0x10, 0x00, 0x00, 0x00, 0x02, 0x00, 0x00, 0x00, 0x01, 0x00, 0x00, 0x00,
  0x08, 0x00, 0x00, 0x00, 0x01, 0x00, 0x00, 0x00, 0x07, 0x00, 0x00, 0x00,
  0x00, 0x00, 0x0e, 0x00, 0x18, 0x00, 0x14, 0x00, 0x10, 0x00, 0x0c, 0x00,
  0x0b, 0x00, 0x04, 0x00, 0x0e, 0x00, 0x00, 0x00, 0x20, 0x00, 0x00, 0x00,
  0x00, 0x00, 0x00, 0x01, 0x2c, 0x00, 0x00, 0x00, 0x30, 0x00, 0x00, 0x00,
  0x01, 0x00, 0x00, 0x00, 0x0c, 0x00, 0x14, 0x00, 0x13, 0x00, 0x0c, 0x00,
  0x08, 0x00, 0x07, 0x00, 0x0c, 0x00, 0x00, 0x00, 0x00, 0x00, 0x00, 0x01,
  0x02, 0x00, 0x00, 0x00, 0x02, 0x00, 0x00, 0x00, 0x00, 0x00, 0x00, 0x01,
  0x01, 0x00, 0x00, 0x00, 0x07, 0x00, 0x00, 0x00, 0x03, 0x00, 0x00, 0x00,
  0x06, 0x00, 0x00, 0x00, 0x01, 0x00, 0x00, 0x00, 0x04, 0x00, 0x00, 0x00,
  0x00, 0x00, 0x0e, 0x00, 0x14, 0x00, 0x00, 0x00, 0x10, 0x00, 0x0c, 0x00,
  0x0b, 0x00, 0x04, 0x00, 0x0e, 0x00, 0x00, 0x00, 0x18, 0x00, 0x00, 0x00,
  0x00, 0x00, 0x00, 0x4a, 0x18, 0x00, 0x00, 0x00, 0x1c, 0x00, 0x00, 0x00,
  0x08, 0x00, 0x08, 0x00, 0x00, 0x00, 0x07, 0x00, 0x08, 0x00, 0x00, 0x00,
  0x00, 0x00, 0x00, 0x01, 0x01, 0x00, 0x00, 0x00, 0x06, 0x00, 0x00, 0x00,
  0x02, 0x00, 0x00, 0x00, 0x00, 0x00, 0x00, 0x00, 0x02, 0x00, 0x00, 0x00,
  0x01, 0x00, 0x00, 0x00, 0x0e, 0x00, 0x00, 0x00, 0x01, 0x00, 0x00, 0x00,
  0x00, 0x00, 0x00, 0x00, 0x0f, 0x00, 0x00, 0x00, 0x7c, 0x08, 0x00, 0x00,
  0xc4, 0x07, 0x00, 0x00, 0x5c, 0x07, 0x00, 0x00, 0xfc, 0x06, 0x00, 0x00,
  0xa0, 0x06, 0x00, 0x00, 0x14, 0x06, 0x00, 0x00, 0x94, 0x05, 0x00, 0x00,
  0xbc, 0x04, 0x00, 0x00, 0x64, 0x03, 0x00, 0x00, 0xb8, 0x02, 0x00, 0x00,
  0x3c, 0x02, 0x00, 0x00, 0x94, 0x01, 0x00, 0x00, 0xe4, 0x00, 0x00, 0x00,
  0x60, 0x00, 0x00, 0x00, 0x04, 0x00, 0x00, 0x00, 0xd6, 0xf7, 0xff, 0xff,
  0x00, 0x00, 0x00, 0x01, 0x14, 0x00, 0x00, 0x00, 0x1c, 0x00, 0x00, 0x00,
  0x1c, 0x00, 0x00, 0x00, 0x0f, 0x00, 0x00, 0x00, 0x34, 0x00, 0x00, 0x00,
  0x02, 0x00, 0x00, 0x00, 0xff, 0xff, 0xff, 0xff, 0x01, 0x00, 0x00, 0x00,
  0xb8, 0xf7, 0xff, 0xff, 0x19, 0x00, 0x00, 0x00, 0x53, 0x74, 0x61, 0x74,
  0x65, 0x66, 0x75, 0x6c, 0x50, 0x61, 0x72, 0x74, 0x69, 0x74, 0x69, 0x6f,
  0x6e, 0x65, 0x64, 0x43, 0x61, 0x6c, 0x6c, 0x3a, 0x30, 0x00, 0x00, 0x00,
  0x02, 0x00, 0x00, 0x00, 0x01, 0x00, 0x00, 0x00, 0x01, 0x00, 0x00, 0x00,
  0x26, 0xfd, 0xff, 0xff, 0x00, 0x00, 0x00, 0x01, 0x18, 0x00, 0x00, 0x00,
  0x20, 0x00, 0x00, 0x00, 0x40, 0x00, 0x00, 0x00, 0x0e, 0x00, 0x00, 0x00,
  0x00, 0x00, 0x00, 0x09, 0x58, 0x00, 0x00, 0x00, 0x02, 0x00, 0x00, 0x00,
  0xff, 0xff, 0xff, 0xff, 0x01, 0x00, 0x00, 0x00, 0x7c, 0xfa, 0xff, 0xff,
  0x08, 0x00, 0x00, 0x00, 0x14, 0x00, 0x00, 0x00, 0x01, 0x00, 0x00, 0x00,
  0x80, 0xff, 0xff, 0xff, 0xff, 0xff, 0xff, 0xff, 0x00, 0x00, 0x00, 0x00,
  0x01, 0x00, 0x00, 0x00, 0x00, 0x00, 0x80, 0x3b, 0x1d, 0x00, 0x00, 0x00,
  0x6d, 0x6f, 0x64, 0x65, 0x6c, 0x5f, 0x31, 0x2f, 0x71, 0x75, 0x61, 0x6e,
  0x74, 0x5f, 0x64, 0x65, 0x6e, 0x73, 0x65, 0x5f, 0x33, 0x2f, 0x53, 0x69,
  0x67, 0x6d, 0x6f, 0x69, 0x64, 0x00, 0x00, 0x00, 0x02, 0x00, 0x00, 0x00,
  0x01, 0x00, 0x00, 0x00, 0x01, 0x00, 0x00, 0x00, 0xa6, 0xfd, 0xff, 0xff,
  0x00, 0x00, 0x00, 0x01, 0x18, 0x00, 0x00, 0x00, 0x20, 0x00, 0x00, 0x00,
  0x40, 0x00, 0x00, 0x00, 0x0d, 0x00, 0x00, 0x00, 0x00, 0x00, 0x00, 0x09,
  0x74, 0x00, 0x00, 0x00, 0x02, 0x00, 0x00, 0x00, 0xff, 0xff, 0xff, 0xff,
  0x01, 0x00, 0x00, 0x00, 0xfc, 0xfa, 0xff, 0xff, 0x08, 0x00, 0x00, 0x00,
  0x14, 0x00, 0x00, 0x00, 0x01, 0x00, 0x00, 0x00, 0xdc, 0xff, 0xff, 0xff,
  0xff, 0xff, 0xff, 0xff, 0x00, 0x00, 0x00, 0x00, 0x01, 0x00, 0x00, 0x00,
  0x8b, 0x82, 0x04, 0x3e, 0x3a, 0x00, 0x00, 0x00, 0x6d, 0x6f, 0x64, 0x65,
  0x6c, 0x5f, 0x31, 0x2f, 0x71, 0x75, 0x61, 0x6e, 0x74, 0x5f, 0x64, 0x65,
  0x6e, 0x73, 0x65, 0x5f, 0x33, 0x2f, 0x4d, 0x61, 0x74, 0x4d, 0x75, 0x6c,
  0x3b, 0x6d, 0x6f, 0x64, 0x65, 0x6c, 0x5f, 0x31, 0x2f, 0x71, 0x75, 0x61,
  0x6e, 0x74, 0x5f, 0x64, 0x65, 0x6e, 0x73, 0x65, 0x5f, 0x33, 0x2f, 0x42,
  0x69, 0x61, 0x73, 0x41, 0x64, 0x64, 0x00, 0x00, 0x02, 0x00, 0x00, 0x00,
  0x01, 0x00, 0x00, 0x00, 0x01, 0x00, 0x00, 0x00, 0x00, 0x00, 0x0e, 0x00,
  0x18, 0x00, 0x14, 0x00, 0x13, 0x00, 0x0c, 0x00, 0x08, 0x00, 0x04, 0x00,
  0x0e, 0x00, 0x00, 0x00, 0x14, 0x00, 0x00, 0x00, 0x30, 0x00, 0x00, 0x00,
  0x0c, 0x00, 0x00, 0x00, 0x00, 0x00, 0x00, 0x09, 0x84, 0x00, 0x00, 0x00,
  0x94, 0xfb, 0xff, 0xff, 0x08, 0x00, 0x00, 0x00, 0x10, 0x00, 0x00, 0x00,
  0x01, 0x00, 0x00, 0x00, 0x00, 0x00, 0x00, 0x00, 0x00, 0x00, 0x00, 0x00,
  0x01, 0x00, 0x00, 0x00, 0x02, 0xcd, 0xec, 0x3b, 0x59, 0x00, 0x00, 0x00,
  0x6d, 0x6f, 0x64, 0x65, 0x6c, 0x5f, 0x31, 0x2f, 0x71, 0x75, 0x61, 0x6e,
  0x74, 0x5f, 0x64, 0x65, 0x6e, 0x73, 0x65, 0x5f, 0x33, 0x2f, 0x4d, 0x61,
  0x74, 0x4d, 0x75, 0x6c, 0x3b, 0x6d, 0x6f, 0x64, 0x65, 0x6c, 0x5f, 0x31,
  0x2f, 0x71, 0x75, 0x61, 0x6e, 0x74, 0x5f, 0x64, 0x65, 0x6e, 0x73, 0x65,
  0x5f, 0x33, 0x2f, 0x4c, 0x61, 0x73, 0x74, 0x56, 0x61, 0x6c, 0x75, 0x65,
  0x51, 0x75, 0x61, 0x6e, 0x74, 0x2f, 0x46, 0x61, 0x6b, 0x65, 0x51, 0x75,
  0x61, 0x6e, 0x74, 0x57, 0x69, 0x74, 0x68, 0x4d, 0x69, 0x6e, 0x4d, 0x61,
  0x78, 0x56, 0x61, 0x72, 0x73, 0x00, 0x00, 0x00, 0x02, 0x00, 0x00, 0x00,
  0x01, 0x00, 0x00, 0x00, 0x20, 0x01, 0x00, 0x00, 0xf6, 0xfe, 0xff, 0xff,
  0x00, 0x00, 0x00, 0x01, 0x18, 0x00, 0x00, 0x00, 0x20, 0x00, 0x00, 0x00,
  0x3c, 0x00, 0x00, 0x00, 0x0b, 0x00, 0x00, 0x00, 0x00, 0x00, 0x00, 0x09,
  0x50, 0x00, 0x00, 0x00, 0x02, 0x00, 0x00, 0x00, 0xff, 0xff, 0xff, 0xff,
  0x20, 0x01, 0x00, 0x00, 0x4c, 0xfc, 0xff, 0xff, 0x08, 0x00, 0x00, 0x00,
  0x10, 0x00, 0x00, 0x00, 0x01, 0x00, 0x00, 0x00, 0x84, 0xff, 0xff, 0xff,
  0xff, 0xff, 0xff, 0xff, 0x01, 0x00, 0x00, 0x00, 0x60, 0xfd, 0x76, 0x3d,
  0x19, 0x00, 0x00, 0x00, 0x6d, 0x6f, 0x64, 0x65, 0x6c, 0x5f, 0x31, 0x2f,
  0x66, 0x6c, 0x61, 0x74, 0x74, 0x65, 0x6e, 0x5f, 0x32, 0x2f, 0x52, 0x65,
  0x73, 0x68, 0x61, 0x70, 0x65, 0x00, 0x00, 0x00, 0x02, 0x00, 0x00, 0x00,
  0x01, 0x00, 0x00, 0x00, 0x20, 0x01, 0x00, 0x00, 0x6e, 0xff, 0xff, 0xff,
  0x00, 0x00, 0x00, 0x01, 0x18, 0x00, 0x00, 0x00, 0x28, 0x00, 0x00, 0x00,
  0x48, 0x00, 0x00, 0x00, 0x0a, 0x00, 0x00, 0x00, 0x00, 0x00, 0x00, 0x09,
  0x60, 0x00, 0x00, 0x00, 0x04, 0x00, 0x00, 0x00, 0xff, 0xff, 0xff, 0xff,
  0x06, 0x00, 0x00, 0x00, 0x06, 0x00, 0x00, 0x00, 0x08, 0x00, 0x00, 0x00,
  0xcc, 0xfc, 0xff, 0xff, 0x08, 0x00, 0x00, 0x00, 0x14, 0x00, 0x00, 0x00,
  0x01, 0x00, 0x00, 0x00, 0x84, 0xff, 0xff, 0xff, 0xff, 0xff, 0xff, 0xff,
  0x00, 0x00, 0x00, 0x00, 0x01, 0x00, 0x00, 0x00, 0x60, 0xfd, 0x76, 0x3d,
  0x1f, 0x00, 0x00, 0x00, 0x6d, 0x6f, 0x64, 0x65, 0x6c, 0x5f, 0x31, 0x2f,
  0x6d, 0x61, 0x78, 0x5f, 0x70, 0x6f, 0x6f, 0x6c, 0x69, 0x6e, 0x67, 0x32,
  0x64, 0x5f, 0x32, 0x2f, 0x4d, 0x61, 0x78, 0x50, 0x6f, 0x6f, 0x6c, 0x00,
  0x04, 0x00, 0x00, 0x00, 0x01, 0x00, 0x00, 0x00, 0x06, 0x00, 0x00, 0x00,
  0x06, 0x00, 0x00, 0x00, 0x08, 0x00, 0x00, 0x00, 0x00, 0x00, 0x16, 0x00,
  0x20, 0x00, 0x1c, 0x00, 0x1b, 0x00, 0x14, 0x00, 0x10, 0x00, 0x0c, 0x00,
  0x00, 0x00, 0x00, 0x00, 0x08, 0x00, 0x07, 0x00, 0x16, 0x00, 0x00, 0x00,
  0x00, 0x00, 0x00, 0x01, 0x18, 0x00, 0x00, 0x00, 0x28, 0x00, 0x00, 0x00,
  0x48, 0x00, 0x00, 0x00, 0x09, 0x00, 0x00, 0x00, 0x00, 0x00, 0x00, 0x09,
  0x24, 0x01, 0x00, 0x00, 0x04, 0x00, 0x00, 0x00, 0xff, 0xff, 0xff, 0xff,
  0x0d, 0x00, 0x00, 0x00, 0x0d, 0x00, 0x00, 0x00, 0x08, 0x00, 0x00, 0x00,
  0x74, 0xfd, 0xff, 0xff, 0x08, 0x00, 0x00, 0x00, 0x14, 0x00, 0x00, 0x00,
  0x01, 0x00, 0x00, 0x00, 0x84, 0xff, 0xff, 0xff, 0xff, 0xff, 0xff, 0xff,
  0x00, 0x00, 0x00, 0x00, 0x01, 0x00, 0x00, 0x00, 0x60, 0xfd, 0x76, 0x3d,
  0xe2, 0x00, 0x00, 0x00, 0x6d, 0x6f, 0x64, 0x65, 0x6c, 0x5f, 0x31, 0x2f,
  0x71, 0x75, 0x61, 0x6e, 0x74, 0x5f, 0x63, 0x6f, 0x6e, 0x76, 0x32, 0x64,
  0x5f, 0x32, 0x2f, 0x4d, 0x6f, 0x76, 0x69, 0x6e, 0x67, 0x41, 0x76, 0x67,
  0x51, 0x75, 0x61, 0x6e, 0x74, 0x69, 0x7a, 0x65, 0x2f, 0x46, 0x61, 0x6b,
  0x65, 0x51, 0x75, 0x61, 0x6e, 0x74, 0x57, 0x69, 0x74, 0x68, 0x4d, 0x69,
  0x6e, 0x4d, 0x61, 0x78, 0x56, 0x61, 0x72, 0x73, 0x3b, 0x6d, 0x6f, 0x64,
  0x65, 0x6c, 0x5f, 0x31, 0x2f, 0x71, 0x75, 0x61, 0x6e, 0x74, 0x5f, 0x63,
  0x6f, 0x6e, 0x76, 0x32, 0x64, 0x5f, 0x32, 0x2f, 0x4d, 0x6f, 0x76, 0x69,
  0x6e, 0x67, 0x41, 0x76, 0x67, 0x51, 0x75, 0x61, 0x6e, 0x74, 0x69, 0x7a,
  0x65, 0x2f, 0x46, 0x61, 0x6b, 0x65, 0x51, 0x75, 0x61, 0x6e, 0x74, 0x57,
  0x69, 0x74, 0x68, 0x4d, 0x69, 0x6e, 0x4d, 0x61, 0x78, 0x56, 0x61, 0x72,
  0x73, 0x2f, 0x52, 0x65, 0x61, 0x64, 0x56, 0x61, 0x72, 0x69, 0x61, 0x62,
  0x6c, 0x65, 0x4f, 0x70, 0x3b, 0x6d, 0x6f, 0x64, 0x65, 0x6c, 0x5f, 0x31,
  0x2f, 0x71, 0x75, 0x61, 0x6e, 0x74, 0x5f, 0x63, 0x6f, 0x6e, 0x76, 0x32,
  0x64, 0x5f, 0x32, 0x2f, 0x4d, 0x6f, 0x76, 0x69, 0x6e, 0x67, 0x41, 0x76,
  0x67, 0x51, 0x75, 0x61, 0x6e, 0x74, 0x69, 0x7a, 0x65, 0x2f, 0x46, 0x61,
  0x6b, 0x65, 0x51, 0x75, 0x61, 0x6e, 0x74, 0x57, 0x69, 0x74, 0x68, 0x4d,
  0x69, 0x6e, 0x4d, 0x61, 0x78, 0x56, 0x61, 0x72, 0x73, 0x2f, 0x52, 0x65,
  0x61, 0x64, 0x56, 0x61, 0x72, 0x69, 0x61, 0x62, 0x6c, 0x65, 0x4f, 0x70,
  0x5f, 0x31, 0x00, 0x00, 0x04, 0x00, 0x00, 0x00, 0x01, 0x00, 0x00, 0x00,
  0x0d, 0x00, 0x00, 0x00, 0x0d, 0x00, 0x00, 0x00, 0x08, 0x00, 0x00, 0x00,
  0x72, 0xfc, 0xff, 0xff, 0x00, 0x00, 0x00, 0x01, 0x14, 0x00, 0x00, 0x00,
  0x24, 0x00, 0x00, 0x00, 0x24, 0x00, 0x00, 0x00, 0x08, 0x00, 0x00, 0x00,
  0xa8, 0x00, 0x00, 0x00, 0x04, 0x00, 0x00, 0x00, 0xff, 0xff, 0xff, 0xff,
  0x0d, 0x00, 0x00, 0x00, 0x0d, 0x00, 0x00, 0x00, 0x08, 0x00, 0x00, 0x00,
  0x5c, 0xfc, 0xff, 0xff, 0x86, 0x00, 0x00, 0x00, 0x6d, 0x6f, 0x64, 0x65,
  0x6c, 0x5f, 0x31, 0x2f, 0x71, 0x75, 0x61, 0x6e, 0x74, 0x5f, 0x63, 0x6f,
  0x6e, 0x76, 0x32, 0x64, 0x5f, 0x32, 0x2f, 0x52, 0x65, 0x6c, 0x75, 0x3b,
  0x6d, 0x6f, 0x64, 0x65, 0x6c, 0x5f, 0x31, 0x2f, 0x71, 0x75, 0x61, 0x6e,
  0x74, 0x5f, 0x63, 0x6f, 0x6e, 0x76, 0x32, 0x64, 0x5f, 0x32, 0x2f, 0x42,
  0x69, 0x61, 0x73, 0x41, 0x64, 0x64, 0x3b, 0x6d, 0x6f, 0x64, 0x65, 0x6c,
  0x5f, 0x31, 0x2f, 0x71, 0x75, 0x61, 0x6e, 0x74, 0x5f, 0x63, 0x6f, 0x6e,
  0x76, 0x32, 0x64, 0x5f, 0x32, 0x2f, 0x43, 0x6f, 0x6e, 0x76, 0x32, 0x44,
  0x3b, 0x6d, 0x6f, 0x64, 0x65, 0x6c, 0x5f, 0x31, 0x2f, 0x71, 0x75, 0x61,
  0x6e, 0x74, 0x5f, 0x63, 0x6f, 0x6e, 0x76, 0x32, 0x64, 0x5f, 0x32, 0x2f,
  0x42, 0x69, 0x61, 0x73, 0x41, 0x64, 0x64, 0x2f, 0x52, 0x65, 0x61, 0x64,
  0x56, 0x61, 0x72, 0x69, 0x61, 0x62, 0x6c, 0x65, 0x4f, 0x70, 0x00, 0x00,
  0x04, 0x00, 0x00, 0x00, 0x01, 0x00, 0x00, 0x00, 0x0d, 0x00, 0x00, 0x00,
  0x0d, 0x00, 0x00, 0x00, 0x08, 0x00, 0x00, 0x00, 0x46, 0xfd, 0xff, 0xff,
  0x00, 0x00, 0x00, 0x01, 0x14, 0x00, 0x00, 0x00, 0x24, 0x00, 0x00, 0x00,
  0x24, 0x00, 0x00, 0x00, 0x07, 0x00, 0x00, 0x00, 0x50, 0x00, 0x00, 0x00,
  0x04, 0x00, 0x00, 0x00, 0xff, 0xff, 0xff, 0xff, 0x20, 0x00, 0x00, 0x00,
  0x20, 0x00, 0x00, 0x00, 0x01, 0x00, 0x00, 0x00, 0x30, 0xfd, 0xff, 0xff,
  0x2f, 0x00, 0x00, 0x00, 0x6d, 0x6f, 0x64, 0x65, 0x6c, 0x5f, 0x31, 0x2f,
  0x72, 0x65, 0x73, 0x69, 0x7a, 0x69, 0x6e, 0x67, 0x5f, 0x32, 0x2f, 0x72,
  0x65, 0x73, 0x69, 0x7a, 0x65, 0x2f, 0x52, 0x65, 0x73, 0x69, 0x7a, 0x65,
  0x4e, 0x65, 0x61, 0x72, 0x65, 0x73, 0x74, 0x4e, 0x65, 0x69, 0x67, 0x68,
  0x62, 0x6f, 0x72, 0x00, 0x04, 0x00, 0x00, 0x00, 0x01, 0x00, 0x00, 0x00,
  0x20, 0x00, 0x00, 0x00, 0x20, 0x00, 0x00, 0x00, 0x01, 0x00, 0x00, 0x00,
  0xda, 0xfe, 0xff, 0xff, 0x00, 0x00, 0x00, 0x01, 0x20, 0x00, 0x00, 0x00,
  0x40, 0x00, 0x00, 0x00, 0x06, 0x00, 0x00, 0x00, 0x00, 0x00, 0x00, 0x02,
  0x68, 0x00, 0x00, 0x00, 0x0c, 0x00, 0x0c, 0x00, 0x00, 0x00, 0x00, 0x00,
  0x08, 0x00, 0x04, 0x00, 0x0c, 0x00, 0x00, 0x00, 0x08, 0x00, 0x00, 0x00,
  0x14, 0x00, 0x00, 0x00, 0x01, 0x00, 0x00, 0x00, 0x00, 0x00, 0x00, 0x00,
  0x00, 0x00, 0x00, 0x00, 0x00, 0x00, 0x00, 0x00, 0x01, 0x00, 0x00, 0x00,
  0x60, 0x77, 0xe4, 0x39, 0x2c, 0x00, 0x00, 0x00, 0x6d, 0x6f, 0x64, 0x65,
  0x6c, 0x5f, 0x31, 0x2f, 0x71, 0x75, 0x61, 0x6e, 0x74, 0x5f, 0x64, 0x65,
  0x6e, 0x73, 0x65, 0x5f, 0x33, 0x2f, 0x42, 0x69, 0x61, 0x73, 0x41, 0x64,
  0x64, 0x2f, 0x52, 0x65, 0x61, 0x64, 0x56, 0x61, 0x72, 0x69, 0x61, 0x62,
  0x6c, 0x65, 0x4f, 0x70, 0x00, 0x00, 0x00, 0x00, 0x01, 0x00, 0x00, 0x00,
  0x01, 0x00, 0x00, 0x00, 0xfe, 0xfe, 0xff, 0xff, 0x00, 0x00, 0x00, 0x01,
  0x10, 0x00, 0x00, 0x00, 0x10, 0x00, 0x00, 0x00, 0x05, 0x00, 0x00, 0x00,
  0x3c, 0x00, 0x00, 0x00, 0x1c, 0xfe, 0xff, 0xff, 0x2d, 0x00, 0x00, 0x00,
  0x6d, 0x6f, 0x64, 0x65, 0x6c, 0x5f, 0x31, 0x2f, 0x71, 0x75, 0x61, 0x6e,
  0x74, 0x5f, 0x63, 0x6f, 0x6e, 0x76, 0x32, 0x64, 0x5f, 0x32, 0x2f, 0x42,
  0x69, 0x61, 0x73, 0x41, 0x64, 0x64, 0x2f, 0x52, 0x65, 0x61, 0x64, 0x56,
  0x61, 0x72, 0x69, 0x61, 0x62, 0x6c, 0x65, 0x4f, 0x70, 0x00, 0x00, 0x00,
  0x01, 0x00, 0x00, 0x00, 0x08, 0x00, 0x00, 0x00, 0xba, 0xff, 0xff, 0xff,
  0x00, 0x00, 0x00, 0x01, 0x14, 0x00, 0x00, 0x00, 0x14, 0x00, 0x00, 0x00,
  0x04, 0x00, 0x00, 0x00, 0x00, 0x00, 0x00, 0x02, 0x24, 0x00, 0x00, 0x00,
  0x78, 0xfe, 0xff, 0xff, 0x17, 0x00, 0x00, 0x00, 0x6d, 0x6f, 0x64, 0x65,
  0x6c, 0x5f, 0x31, 0x2f, 0x66, 0x6c, 0x61, 0x74, 0x74, 0x65, 0x6e, 0x5f,
  0x32, 0x2f, 0x43, 0x6f, 0x6e, 0x73, 0x74, 0x00, 0x01, 0x00, 0x00, 0x00,
  0x02, 0x00, 0x00, 0x00, 0x00, 0x00, 0x16, 0x00, 0x1c, 0x00, 0x18, 0x00,
  0x17, 0x00, 0x10, 0x00, 0x0c, 0x00, 0x08, 0x00, 0x00, 0x00, 0x00, 0x00,
  0x00, 0x00, 0x07, 0x00, 0x16, 0x00, 0x00, 0x00, 0x00, 0x00, 0x00, 0x01,
  0x14, 0x00, 0x00, 0x00, 0x14, 0x00, 0x00, 0x00, 0x03, 0x00, 0x00, 0x00,
  0x00, 0x00, 0x00, 0x02, 0x2c, 0x00, 0x00, 0x00, 0xd4, 0xfe, 0xff, 0xff,
  0x1e, 0x00, 0x00, 0x00, 0x6d, 0x6f, 0x64, 0x65, 0x6c, 0x5f, 0x31, 0x2f,
  0x72, 0x65, 0x73, 0x69, 0x7a, 0x69, 0x6e, 0x67, 0x5f, 0x32, 0x2f, 0x72,
  0x65, 0x73, 0x69, 0x7a, 0x65, 0x2f, 0x73, 0x69, 0x7a, 0x65, 0x00, 0x00,
  0x01, 0x00, 0x00, 0x00, 0x02, 0x00, 0x00, 0x00, 0x00, 0x00, 0x16, 0x00,
  0x18, 0x00, 0x14, 0x00, 0x00, 0x00, 0x10, 0x00, 0x0c, 0x00, 0x08, 0x00,
  0x00, 0x00, 0x00, 0x00, 0x00, 0x00, 0x07, 0x00, 0x16, 0x00, 0x00, 0x00,
  0x00, 0x00, 0x00, 0x01, 0x10, 0x00, 0x00, 0x00, 0x10, 0x00, 0x00, 0x00,
  0x02, 0x00, 0x00, 0x00, 0x74, 0x00, 0x00, 0x00, 0x34, 0xff, 0xff, 0xff,
  0x65, 0x00, 0x00, 0x00, 0x6d, 0x6f, 0x64, 0x65, 0x6c, 0x5f, 0x31, 0x2f,
  0x71, 0x75, 0x61, 0x6e, 0x74, 0x5f, 0x63, 0x6f, 0x6e, 0x76, 0x32, 0x64,
  0x5f, 0x32, 0x2f, 0x43, 0x6f, 0x6e, 0x76, 0x32, 0x44, 0x3b, 0x6d, 0x6f,
  0x64, 0x65, 0x6c, 0x5f, 0x31, 0x2f, 0x71, 0x75, 0x61, 0x6e, 0x74, 0x5f,
  0x63, 0x6f, 0x6e, 0x76, 0x32, 0x64, 0x5f, 0x32, 0x2f, 0x4c, 0x61, 0x73,
  0x74, 0x56, 0x61, 0x6c, 0x75, 0x65, 0x51, 0x75, 0x61, 0x6e, 0x74, 0x2f,
  0x46, 0x61, 0x6b, 0x65, 0x51, 0x75, 0x61, 0x6e, 0x74, 0x57, 0x69, 0x74,
  0x68, 0x4d, 0x69, 0x6e, 0x4d, 0x61, 0x78, 0x56, 0x61, 0x72, 0x73, 0x50,
  0x65, 0x72, 0x43, 0x68, 0x61, 0x6e, 0x6e, 0x65, 0x6c, 0x00, 0x00, 0x00,
  0x04, 0x00, 0x00, 0x00, 0x08, 0x00, 0x00, 0x00, 0x08, 0x00, 0x00, 0x00,
  0x08, 0x00, 0x00, 0x00, 0x01, 0x00, 0x00, 0x00, 0x00, 0x00, 0x16, 0x00,
  0x1c, 0x00, 0x18, 0x00, 0x00, 0x00, 0x14, 0x00, 0x10, 0x00, 0x0c, 0x00,
  0x00, 0x00, 0x00, 0x00, 0x08, 0x00, 0x07, 0x00, 0x16, 0x00, 0x00, 0x00,
  0x00, 0x00, 0x00, 0x01, 0x14, 0x00, 0x00, 0x00, 0x28, 0x00, 0x00, 0x00,
  0x28, 0x00, 0x00, 0x00, 0x01, 0x00, 0x00, 0x00, 0x40, 0x00, 0x00, 0x00,
  0x04, 0x00, 0x00, 0x00, 0xff, 0xff, 0xff, 0xff, 0xf9, 0x00, 0x00, 0x00,
  0x01, 0x01, 0x00, 0x00, 0x01, 0x00, 0x00, 0x00, 0x04, 0x00, 0x04, 0x00,
  0x04, 0x00, 0x00, 0x00, 0x19, 0x00, 0x00, 0x00, 0x73, 0x65, 0x72, 0x76,
  0x69, 0x6e, 0x67, 0x5f, 0x64, 0x65, 0x66, 0x61, 0x75, 0x6c, 0x74, 0x5f,
  0x69, 0x6e, 0x70, 0x75, 0x74, 0x5f, 0x33, 0x3a, 0x30, 0x00, 0x00, 0x00,
  0x04, 0x00, 0x00, 0x00, 0x01, 0x00, 0x00, 0x00, 0xf9, 0x00, 0x00, 0x00,
  0x01, 0x01, 0x00, 0x00, 0x01, 0x00, 0x00, 0x00, 0x08, 0x00, 0x00, 0x00,
  0x9c, 0x00, 0x00, 0x00, 0x80, 0x00, 0x00, 0x00, 0x64, 0x00, 0x00, 0x00,
  0x50, 0x00, 0x00, 0x00, 0x40, 0x00, 0x00, 0x00, 0x2c, 0x00, 0x00, 0x00,
  0x18, 0x00, 0x00, 0x00, 0x04, 0x00, 0x00, 0x00, 0x90, 0xff, 0xff, 0xff,
  0x06, 0x00, 0x00, 0x00, 0x02, 0x00, 0x00, 0x00, 0x00, 0x00, 0x00, 0x06,
  0xa0, 0xff, 0xff, 0xff, 0x0e, 0x00, 0x00, 0x00, 0x02, 0x00, 0x00, 0x00,
  0x00, 0x00, 0x00, 0x0e, 0xb0, 0xff, 0xff, 0xff, 0x09, 0x00, 0x00, 0x00,
  0x04, 0x00, 0x00, 0x00, 0x00, 0x00, 0x00, 0x09, 0xd8, 0xff, 0xff, 0xff,
  0x16, 0x00, 0x00, 0x00, 0x00, 0x00, 0x00, 0x16, 0xcc, 0xff, 0xff, 0xff,
  0x11, 0x00, 0x00, 0x00, 0x02, 0x00, 0x00, 0x00, 0x00, 0x00, 0x00, 0x11,
  0xf4, 0xff, 0xff, 0xff, 0x72, 0x00, 0x00, 0x00, 0x00, 0x00, 0x00, 0x72,
  0x0c, 0x00, 0x0c, 0x00, 0x0b, 0x00, 0x00, 0x00, 0x00, 0x00, 0x04, 0x00,
  0x0c, 0x00, 0x00, 0x00, 0x03, 0x00, 0x00, 0x00, 0x00, 0x00, 0x00, 0x03,
  0x0c, 0x00, 0x10, 0x00, 0x0f, 0x00, 0x00, 0x00, 0x08, 0x00, 0x04, 0x00,
  0x0c, 0x00, 0x00, 0x00, 0x61, 0x00, 0x00, 0x00, 0x03, 0x00, 0x00, 0x00,
  0x00, 0x00, 0x00, 0x61
};
